<unk>	0
<s>	0
</s>	0
<pad>	0
<|user|>	0
<|assistant|>	0
<|match|>	0
▁t	-0
er	-1
in	-2
ver	-3
▁to	-4
▁O	-5
an	-6
▁Over	-7
he	-8
▁a	-9
▁S	-10
▁s	-11
▁M	-12
or	-13
▁the	-14
ing	-15
▁1	-16
en	-17
at	-18
▁f	-19
▁b	-20
▁A	-21
ar	-22
ed	-23
▁n	-24
un	-25
le	-26
on	-27
es	-28
wa	-29
▁r	-30
and	-31
al	-32
▁for	-33
▁g	-34
▁c	-35
ak	-36
▁K	-37
ck	-38
▁in	-39
▁w	-40
▁d	-41
way	-42
as	-43
▁away	-44
is	-45
▁run	-46
▁B	-47
ingle	-48
▁C	-49
▁single	-50
gh	-51
et	-52
it	-53
▁R	-54
▁no	-55
ch	-56
id	-57
▁and	-58
am	-59
▁T	-60
▁I	-61
▁p	-62
▁N	-63
ick	-64
▁th	-65
ap	-66
ght	-67
▁P	-68
ot	-69
▁H	-70
us	-71
ce	-72
6:	-73
▁D	-74
.6:	-75
▁—	-76
5:	-77
.5:	-78
▁l	-79
▁F	-80
ll	-81
4:	-82
.4:	-83
▁ti	-84
one	-85
to	-86
▁J	-87
▁v	-88
ud	-89
▁o	-90
▁Mat	-91
▁G	-92
▁can	-93
qu	-94
3:	-95
▁gap	-96
.3:	-97
▁tak	-98
ent	-99
▁vs	-100
▁Match	-101
ence	-102
ol	-103
all	-104
▁into	-105
2:	-106
.2:	-107
ad	-108
ged	-109
▁W	-110
re	-111
▁dot	-112
▁it	-113
▁qu	-114
▁quick	-115
▁L	-116
om	-117
▁de	-118
ine	-119
▁nud	-120
▁nudged	-121
▁E	-122
.1	-123
▁ball	-124
.1:	-125
hes	-126
ork	-127
▁tight	-128
orked	-129
▁worked	-130
▁one	-131
▁pus	-132
▁takes	-133
▁pushes	-134
ut	-135
▁over	-136
▁get	-137
▁line	-138
ow	-139
olid	-140
▁def	-141
▁solid	-142
▁defence	-143
▁h	-144
um	-145
▁m	-146
▁this	-147
im	-148
ri	-149
▁(	-150
han	-151
ning	-152
ah	-153
▁3	-154
).	-155
▁2	-156
el	-157
ou	-158
▁FO	-159
UR	-160
▁FOUR	-161
att	-162
ia	-163
▁Sh	-164
ont	-165
ain	-166
▁It	-167
ge	-168
owl	-169
▁batt	-170
▁that	-171
▁st	-172
ces	-173
ur	-174
▁V	-175
▁mom	-176
▁moment	-177
ir	-178
inu	-179
ack	-180
▁Cont	-181
ig	-182
ay	-183
inue	-184
▁Continue	-185
il	-186
ind	-187
▁Z	-188
ca	-189
if	-190
th	-191
▁Th	-192
iz	-193
wo	-194
tan	-195
▁find	-196
nings	-197
▁innings	-198
▁batter	-199
▁4	-200
ard	-201
icket	-202
▁wicket	-203
▁5	-204
ee	-205
mar	-206
▁bowl	-207
med	-208
▁6	-209
▁7	-210
▁two	-211
▁8	-212
ab	-213
▁11	-214
▁10	-215
ide	-216
▁9	-217
ham	-218
▁side	-219
reak	-220
▁break	-221
▁13	-222
▁finds	-223
ex	-224
▁12	-225
▁wh	-226
ught	-227
caught	-228
▁go	-229
was	-230
▁14	-231
▁back	-232
av	-233
▁15	-234
▁was	-235
ull	-236
mad	-237
▁cr	-238
▁U	-239
▁16	-240
se	-241
od	-242
che	-243
li	-244
az	-245
▁0	-246
ere	-247
ough	-248
sh	-249
ul	-250
ang	-251
▁Mo	-252
▁17	-253
▁overs	-254
uge	-255
ast	-256
ith	-257
7:	-258
.7:	-259
lain	-260
thr	-261
through	-262
▁breakthrough	-263
ew	-264
▁has	-265
imp	-266
und	-267
xp	-268
tant	-269
▁Exp	-270
▁imp	-271
▁why	-272
ortant	-273
▁Explain	-274
▁important	-275
ke	-276
▁big	-277
ched	-278
▁Y	-279
unched	-280
man	-281
ya	-282
▁Sum	-283
▁Khan	-284
ase	-285
undar	-286
▁Ah	-287
▁18	-288
ize	-289
ik	-290
▁ra	-291
▁bo	-292
▁boundar	-293
land	-294
-3	-295
▁2-3	-296
ences	-297
▁last	-298
▁sent	-299
marize	-300
▁Summarize	-301
▁sentences	-302
▁bowling	-303
▁re	-304
▁Ch	-305
ess	-306
hammad	-307
ea	-308
ly	-309
ure	-310
KE	-311
▁OU	-312
IC	-313
▁19	-314
▁Sing	-315
ple	-316
ana	-317
▁with	-318
KET	-319
▁WIC	-320
▁WICKET	-321
▁pr	-322
essure	-323
▁pressure	-324
▁Gone	-325
▁huge	-326
▁OUT	-327
we	-328
ib	-329
▁SI	-330
▁cou	-331
▁couple	-332
nd	-333
ma	-334
ass	-335
▁they	-336
eaut	-337
ully	-338
eautif	-339
▁races	-340
▁timed	-341
▁beautif	-342
▁boundary	-343
▁beautifully	-344
▁crunched	-345
ha	-346
▁fence	-347
▁SIX	-348
art	-349
▁of	-350
▁Singh	-351
▁set	-352
▁That	-353
ext	-354
▁next	-355
ome	-356
▁Mu	-357
ill	-358
iv	-359
ra	-360
▁Ali	-361
▁Ind	-362
rike	-363
▁strike	-364
ani	-365
▁taken	-366
▁running	-367
▁momentum	-368
bo	-369
▁So	-370
ka	-371
son	-372
up	-373
st	-374
▁ex	-375
cell	-376
cellent	-377
▁excellent	-378
▁Ab	-379
▁Ar	-380
▁come	-381
ara	-382
▁Ma	-383
ner	-384
ci	-385
ies	-386
ish	-387
▁Kh	-388
▁Am	-389
eel	-390
bowl	-391
bowled	-392
▁Br	-393
▁Ahmed	-394
ward	-395
iel	-396
▁at	-397
▁is	-398
af	-399
ame	-400
▁Mohammad	-401
▁Mal	-402
ong	-403
▁Shah	-404
▁all	-405
ash	-406
▁Pat	-407
▁Af	-408
ield	-409
eep	-410
ust	-411
ip	-412
ell	-413
▁The	-414
▁Fr	-415
▁Big	-416
▁bowler	-417
▁here	-418
▁batting	-419
▁game	-420
▁ag	-421
▁again	-422
▁chan	-423
os	-424
▁field	-425
▁Ze	-426
▁tri	-427
▁dots	-428
hase	-429
uci	-430
ucial	-431
▁crucial	-432
▁feel	-433
ub	-434
otat	-435
otating	-436
ey	-437
▁on	-438
▁Sa	-439
za	-440
▁cle	-441
▁An	-442
ini	-443
ob	-444
▁Ra	-445
va	-446
ze	-447
ari	-448
ger	-449
akis	-450
oll	-451
utt	-452
ath	-453
ans	-454
me	-455
▁New	-456
wan	-457
ie	-458
uk	-459
▁toward	-460
ree	-461
▁but	-462
ight	-463
oo	-464
arma	-465
era	-466
esh	-467
anka	-468
lease	-469
▁release	-470
ran	-471
▁then	-472
uth	-473
▁DJ	-474
▁Mar	-475
▁Patel	-476
▁Mc	-477
asan	-478
▁Muhammad	-479
age	-480
est	-481
ng	-482
▁Aust	-483
anda	-484
▁SA	-485
▁Is	-486
bu	-487
▁Ak	-488
▁Pakis	-489
▁Pakistan	-490
▁Kam	-491
▁St	-492
ral	-493
ates	-494
▁Hasan	-495
itt	-496
ose	-497
▁van	-498
▁India	-499
▁Q	-500
udd	-501
▁Bh	-502
na	-503
la	-504
▁Eng	-505
▁Mah	-506
eng	-507
ore	-508
▁Per	-509
▁Ka	-510
▁SR	-511
oh	-512
▁Sam	-513
▁As	-514
▁Wa	-515
▁England	-516
▁Un	-517
amp	-518
run	-519
own	-520
aland	-521
em	-522
lor	-523
▁Zealand	-524
urv	-525
▁Tay	-526
ten	-527
▁West	-528
iss	-529
ij	-530
▁Sharma	-531
▁Al	-532
▁Indies	-533
▁South	-534
apse	-535
▁MJ	-536
▁Taylor	-537
ralia	-538
▁Australia	-539
ings	-540
▁Le	-541
her	-542
uts	-543
end	-544
ows	-545
▁Pr	-546
ive	-547
ild	-548
aza	-549
▁Kum	-550
▁AC	-551
atch	-552
ps	-553
▁4.6:	-554
▁3.6:	-555
obb	-556
app	-557
tow	-558
enly	-559
▁Butt	-560
▁4.5:	-561
pal	-562
lad	-563
▁2.6:	-564
▁3.5:	-565
ival	-566
ship	-567
▁new	-568
▁part	-569
▁start	-570
nership	-571
▁breaks	-572
▁forces	-573
▁against	-574
▁partnership	-575
▁time	-576
obble	-577
▁This	-578
▁where	-579
▁wobble	-580
ullah	-581
ges	-582
rica	-583
▁Africa	-584
anger	-585
build	-586
▁From	-587
▁quickly	-588
▁rebuild	-589
oss	-590
▁Sri	-591
▁pl	-592
lips	-593
sudd	-594
tack	-595
tings	-596
▁flips	-597
▁often	-598
▁plans	-599
▁attack	-600
suddenly	-601
▁settings	-602
▁real	-603
changer	-604
ups	-605
bout	-606
▁few	-607
▁mak	-608
▁surv	-609
▁about	-610
▁balls	-611
▁match	-612
▁making	-613
▁changes	-614
▁rotating	-615
▁survival	-616
8:	-617
▁2.5:	-618
.8:	-619
bab	-620
▁mass	-621
▁massive	-622
▁Huge	-623
eeze	-624
▁Now	-625
▁squ	-626
▁hard	-627
▁squeeze	-628
eh	-629
▁/	-630
tal	-631
▁ed	-632
▁edge	-633
▁puts	-634
▁chase	-635
▁right	-636
▁total	-637
▁if	-638
▁sl	-639
coll	-640
gger	-641
▁mini	-642
▁feels	-643
▁slows	-644
collapse	-645
▁trigger	-646
gar	-647
ida	-648
▁5.6:	-649
▁Ad	-650
▁7.6:	-651
▁6.6:	-652
ta	-653
▁Lanka	-654
ist	-655
▁Na	-656
▁Rah	-657
▁5.5:	-658
▁6.5:	-659
▁7.5:	-660
▁out	-661
▁8.6:	-662
▁Bang	-663
ands	-664
har	-665
▁4.4:	-666
adav	-667
▁11.6:	-668
ft	-669
▁AJ	-670
▁la	-671
▁8.5:	-672
▁10.6:	-673
▁Sm	-674
▁9.6:	-675
▁10.5:	-676
▁stands	-677
▁launched	-678
▁11.5:	-679
▁3.4:	-680
ga	-681
▁9.5:	-682
▁2.4:	-683
▁She	-684
▁Mur	-685
▁13.6:	-686
▁Ahmad	-687
town	-688
▁down	-689
▁goes	-690
▁downtown	-691
▁13.5:	-692
▁way	-693
▁clean	-694
▁1.6:	-695
▁12.6:	-696
▁Az	-697
▁12.5:	-698
ited	-699
▁United	-700
▁5.4:	-701
▁good	-702
idi	-703
▁1.5:	-704
▁Ha	-705
▁Abd	-706
▁6.4:	-707
ry	-708
ladesh	-709
▁Bangladesh	-710
▁7.4:	-711
▁up	-712
▁8.4:	-713
ich	-714
▁4.3:	-715
ood	-716
▁14.5:	-717
▁14.6:	-718
▁10.4:	-719
ali	-720
▁9.4:	-721
▁11.4:	-722
eem	-723
ada	-724
▁3.3:	-725
ic	-726
▁AR	-727
▁2.3:	-728
▁Ba	-729
▁Tan	-730
hi	-731
▁sc	-732
ram	-733
aran	-734
▁13.4:	-735
ne	-736
▁15.6:	-737
▁12.4:	-738
▁5.3:	-739
▁Iq	-740
▁15.5:	-741
ittle	-742
ley	-743
▁Us	-744
ons	-745
▁Im	-746
▁Arab	-747
▁6.3:	-748
▁14.4:	-749
▁8.3:	-750
▁1.4:	-751
ina	-752
▁7.3:	-753
▁Moham	-754
▁Zim	-755
▁4.2:	-756
▁9.3:	-757
▁11.3:	-758
▁16.6:	-759
▁10.3:	-760
▁0.6:	-761
▁3.2:	-762
ond	-763
lands	-764
ret	-765
▁Yadav	-766
▁16.5:	-767
▁13.3:	-768
bw	-769
lbw	-770
▁2.2:	-771
ear	-772
illi	-773
▁0.5:	-774
akes	-775
▁15.4:	-776
lam	-777
▁12.3:	-778
▁Sy	-779
▁Yas	-780
ayed	-781
▁Pl	-782
bal	-783
▁5.2:	-784
ov	-785
ter	-786
▁Ne	-787
war	-788
▁17.6:	-789
mart	-790
iaz	-791
▁San	-792
int	-793
yan	-794
▁Si	-795
▁MD	-796
▁Mun	-797
▁Ram	-798
▁1.3:	-799
▁17.5:	-800
▁6.2:	-801
▁Ire	-802
▁Ireland	-803
▁Iqbal	-804
▁ten	-805
▁16.4:	-806
▁8.2:	-807
ji	-808
▁Em	-809
erv	-810
▁14.3:	-811
▁CJ	-812
▁De	-813
▁Man	-814
ua	-815
▁4.1:	-816
▁Kumar	-817
ba	-818
▁7.2:	-819
▁11.2:	-820
▁MR	-821
▁KA	-822
▁Mus	-823
▁3.1:	-824
▁9.2:	-825
▁15.3:	-826
ok	-827
▁10.2:	-828
ung	-829
babwe	-830
▁Zimbabwe	-831
▁13.2:	-832
ika	-833
ory	-834
oor	-835
▁2.1:	-836
▁McC	-837
▁12.2:	-838
reas	-839
▁hit	-840
ently	-841
▁cons	-842
▁gaps	-843
▁areas	-844
▁tried	-845
istently	-846
▁batters	-847
▁consistently	-848
pt	-849
oy	-850
hif	-851
ted	-852
▁shif	-853
▁shifted	-854
▁le	-855
▁sw	-856
▁swing	-857
kar	-858
▁0.4:	-859
▁Key	-860
▁as	-861
▁po	-862
▁tur	-863
▁left	-864
▁point	-865
▁turning	-866
acked	-867
retch	-868
▁5.1:	-869
▁packed	-870
▁moments	-871
▁stretch	-872
isk	-873
que	-874
ths	-875
▁ke	-876
cing	-877
▁kept	-878
▁leng	-879
▁risk	-880
▁smart	-881
▁forcing	-882
▁lengths	-883
▁phase	-884
▁tense	-885
▁little	-886
err	-887
ised	-888
miss	-889
▁near	-890
▁raised	-891
▁stakes	-892
▁changed	-893
rol	-894
ells	-895
▁cont	-896
▁pass	-897
▁were	-898
▁There	-899
▁clear	-900
▁story	-901
▁tells	-902
▁stayed	-903
▁control	-904
▁passage	-905
▁fielding	-906
▁boundaries	-907
▁17.4:	-908
▁AM	-909
▁Overall	-910
ams	-911
▁Smith	-912
ja	-913
ai	-914
▁Jay	-915
ati	-916
▁k	-917
ervy	-918
▁fin	-919
board	-920
▁keep	-921
▁ones	-922
▁tick	-923
▁twos	-924
▁16.3:	-925
▁nervy	-926
▁score	-927
▁finish	-928
▁keeping	-929
▁ticking	-930
▁Rotating	-931
▁scoreboard	-932
enty	-933
appen	-934
▁those	-935
▁Plenty	-936
▁happen	-937
▁happening	-938
▁Riz	-939
▁14.2:	-940
▁AD	-941
▁RR	-942
▁Gre	-943
▁8.1:	-944
▁6.1:	-945
▁Hoss	-946
▁Emir	-947
imana	-948
▁Net	-949
ek	-950
▁1.2:	-951
ler	-952
▁7.1:	-953
▁11.1:	-954
▁12.1:	-955
▁15.2:	-956
▁13.1:	-957
▁Hossain	-958
▁Nam	-959
▁10.1:	-960
▁Willi	-961
▁Emirates	-962
▁9.1:	-963
▁Abdul	-964
ones	-965
▁Fa	-966
ott	-967
▁0.3:	-968
andeep	-969
▁17.3:	-970
▁Mas	-971
▁Bur	-972
aka	-973
▁18.6:	-974
▁Mir	-975
hana	-976
▁16.2:	-977
ton	-978
▁SM	-979
▁18.5:	-980
▁Sal	-981
ania	-982
▁14.1:	-983
▁MA	-984
sey	-985
▁Har	-986
▁Lu	-987
any	-988
les	-989
aw	-990
sen	-991
▁DM	-992
▁Sar	-993
▁AS	-994
di	-995
ira	-996
▁Chan	-997
▁JJ	-998
▁15.1:	-999
ilva	-1000
▁Sto	-1001
▁Shak	-1002
hew	-1003
▁Ug	-1004
▁Uganda	-1005
enn	-1006
▁Gu	-1007
▁Nether	-1008
▁Netherlands	-1009
▁1.1:	-1010
▁Perera	-1011
▁Ash	-1012
▁Raza	-1013
hu	-1014
▁17.2:	-1015
oa	-1016
ord	-1017
ker	-1018
▁EA	-1019
▁Usman	-1020
▁RM	-1021
▁18.4:	-1022
uf	-1023
ene	-1024
▁SF	-1025
▁Was	-1026
iya	-1027
▁Silva	-1028
▁JA	-1029
ridi	-1030
▁Afridi	-1031
▁Par	-1032
▁NR	-1033
▁0.2:	-1034
▁16.1:	-1035
▁Nepal	-1036
▁SC	-1037
▁Nig	-1038
▁Hong	-1039
pe	-1040
▁DA	-1041
▁Bil	-1042
▁Kong	-1043
uri	-1044
una	-1045
▁Green	-1046
▁19.5:	-1047
▁Rizwan	-1048
▁18.3:	-1049
▁19.6:	-1050
iy	-1051
▁Rahman	-1052
ibia	-1053
▁Imran	-1054
▁Far	-1055
hews	-1056
▁Ken	-1057
eshan	-1058
▁Shaf	-1059
▁17.1:	-1060
san	-1061
▁Ja	-1062
▁Namibia	-1063
▁Er	-1064
▁MM	-1065
wait	-1066
▁Bilal	-1067
▁MP	-1068
▁Pand	-1069
▁Tanz	-1070
▁Del	-1071
▁19.4:	-1072
ima	-1073
be	-1074
▁KD	-1075
▁Hass	-1076
ala	-1077
▁Sul	-1078
▁three	-1079
▁Fer	-1080
▁Rav	-1081
▁Mahm	-1082
▁LM	-1083
▁MS	-1084
▁ML	-1085
uy	-1086
well	-1087
hail	-1088
azi	-1089
▁NL	-1090
▁Dav	-1091
▁Me	-1092
▁Sc	-1093
▁KJ	-1094
▁BM	-1095
▁Se	-1096
▁RP	-1097
sa	-1098
ays	-1099
aysia	-1100
▁Malaysia	-1101
▁Dh	-1102
▁18.2:	-1103
▁19.3:	-1104
▁Mor	-1105
▁0.1:	-1106
▁Shan	-1107
▁AA	-1108
▁Raj	-1109
go	-1110
ova	-1111
▁Sch	-1112
▁Abb	-1113
▁BA	-1114
▁Riaz	-1115
▁Nas	-1116
▁SJ	-1117
▁Scot	-1118
▁Scotland	-1119
▁Ish	-1120
ask	-1121
▁Ham	-1122
ock	-1123
▁Bah	-1124
wood	-1125
▁Kar	-1126
uma	-1127
▁SS	-1128
▁Bab	-1129
▁Khat	-1130
▁SL	-1131
mal	-1132
▁Bot	-1133
vine	-1134
▁Khatun	-1135
▁Pa	-1136
▁Bar	-1137
rah	-1138
▁Zeeshan	-1139
iland	-1140
▁Kan	-1141
▁Kenya	-1142
ped	-1143
▁Dar	-1144
▁Shakib	-1145
▁Must	-1146
▁CA	-1147
▁CR	-1148
▁Shahid	-1149
▁Williams	-1150
▁MG	-1151
hel	-1152
▁Rw	-1153
▁Rwanda	-1154
▁19.2:	-1155
▁Jas	-1156
▁Tha	-1157
▁Mend	-1158
▁18.1:	-1159
ohn	-1160
▁Hus	-1161
aman	-1162
angani	-1163
▁Sohail	-1164
▁Nad	-1165
▁GJ	-1166
▁Ay	-1167
ers	-1168
▁Babar	-1169
▁Delany	-1170
▁CM	-1171
ikh	-1172
der	-1173
▁Mad	-1174
deep	-1175
▁JP	-1176
imwe	-1177
▁Ph	-1178
▁Thailand	-1179
aya	-1180
▁Thak	-1181
atar	-1182
utth	-1183
ava	-1184
jad	-1185
▁Mustaf	-1186
▁HA	-1187
▁Sci	-1188
▁Sciver	-1189
▁PA	-1190
aly	-1191
▁Can	-1192
▁Kul	-1193
▁Hassan	-1194
eer	-1195
raf	-1196
▁JD	-1197
▁JM	-1198
▁Sheikh	-1199
are	-1200
▁RG	-1201
▁der	-1202
▁Sid	-1203
lin	-1204
andar	-1205
ichard	-1206
▁JE	-1207
▁MN	-1208
sw	-1209
▁KS	-1210
oon	-1211
▁KM	-1212
▁Mand	-1213
▁BJ	-1214
▁Fin	-1215
▁TM	-1216
▁Khal	-1217
▁Ku	-1218
eed	-1219
▁Syed	-1220
erman	-1221
▁Umar	-1222
imen	-1223
▁KK	-1224
▁Kamara	-1225
eri	-1226
gu	-1227
▁DB	-1228
▁JL	-1229
ett	-1230
▁Gh	-1231
raj	-1232
wal	-1233
▁HM	-1234
▁RA	-1235
▁Abbas	-1236
▁SK	-1237
▁19.1:	-1238
▁Mohammed	-1239
op	-1240
yimana	-1241
▁Kaur	-1242
▁SW	-1243
eria	-1244
bir	-1245
▁Sha	-1246
▁Isma	-1247
ph	-1248
ura	-1249
cher	-1250
▁Camp	-1251
▁Tah	-1252
▁Ismail	-1253
▁HK	-1254
▁Mendis	-1255
▁Sana	-1256
▁Sant	-1257
ishn	-1258
▁Da	-1259
▁Ga	-1260
▁Mw	-1261
▁Nida	-1262
ake	-1263
▁Ir	-1264
▁Koh	-1265
▁Pri	-1266
▁Aziz	-1267
▁Shad	-1268
▁Sah	-1269
▁Jayangani	-1270
taza	-1271
▁Lan	-1272
▁GH	-1273
oaib	-1274
▁Shoaib	-1275
ede	-1276
▁RD	-1277
▁Nigeria	-1278
▁Van	-1279
▁runs	-1280
▁KC	-1281
▁Amjad	-1282
▁Kohli	-1283
▁Aq	-1284
▁LA	-1285
hee	-1286
let	-1287
▁Hay	-1288
▁KH	-1289
amb	-1290
▁Bimen	-1291
▁Bimenyimana	-1292
▁JC	-1293
ush	-1294
▁PR	-1295
▁Rana	-1296
uba	-1297
▁TT	-1298
▁Gun	-1299
▁Waq	-1300
iri	-1301
▁Sultan	-1302
▁Vir	-1303
pa	-1304
▁Ok	-1305
▁Dil	-1306
kara	-1307
▁Sad	-1308
ano	-1309
▁EJ	-1310
▁Pi	-1311
▁Meh	-1312
▁Okpe	-1313
ade	-1314
ort	-1315
my	-1316
▁Chand	-1317
▁Car	-1318
▁Oman	-1319
▁Islam	-1320
ohan	-1321
▁Pandya	-1322
▁Sim	-1323
▁Re	-1324
▁Santner	-1325
▁Haf	-1326
ug	-1327
▁Richard	-1328
stum	-1329
stumped	-1330
▁Bel	-1331
gaard	-1332
inga	-1333
ider	-1334
kat	-1335
rain	-1336
▁Bahrain	-1337
▁Juna	-1338
atile	-1339
▁Mwatile	-1340
thews	-1341
▁Matthews	-1342
leem	-1343
night	-1344
▁Di	-1345
ald	-1346
▁Junaid	-1347
▁Ishimwe	-1348
▁Kal	-1349
▁John	-1350
▁Nd	-1351
▁SO	-1352
▁Bal	-1353
ris	-1354
▁Perry	-1355
▁JO	-1356
▁Nur	-1357
eez	-1358
ington	-1359
▁Tanzania	-1360
zad	-1361
▁RJ	-1362
▁Yo	-1363
▁Vij	-1364
▁Kerr	-1365
win	-1366
▁Co	-1367
▁HH	-1368
▁Virandeep	-1369
▁Mahmud	-1370
oni	-1371
▁Richardson	-1372
char	-1373
atne	-1374
▁And	-1375
▁AE	-1376
▁Sik	-1377
▁Knight	-1378
▁Asif	-1379
▁SFM	-1380
▁Devine	-1381
onesia	-1382
▁Indonesia	-1383
rell	-1384
▁Sw	-1385
au	-1386
unt	-1387
▁Naz	-1388
▁Khalid	-1389
▁Anwar	-1390
jan	-1391
ashi	-1392
▁Kuwait	-1393
▁Ari	-1394
apore	-1395
▁Singapore	-1396
ermany	-1397
▁Germany	-1398
▁Akter	-1399
akr	-1400
waz	-1401
stone	-1402
▁Azam	-1403
▁Sikandar	-1404
apua	-1405
inea	-1406
▁Papua	-1407
▁Guinea	-1408
▁Ada	-1409
▁Amir	-1410
▁PW	-1411
ye	-1412
▁WA	-1413
▁TG	-1414
▁Va	-1415
▁Pan	-1416
▁CN	-1417
▁TL	-1418
▁Ag	-1419
▁He	-1420
▁Sultana	-1421
▁Mill	-1422
▁SP	-1423
▁At	-1424
oul	-1425
▁Haider	-1426
▁Aqib	-1427
▁Dun	-1428
mann	-1429
heem	-1430
uz	-1431
▁JN	-1432
▁Sab	-1433
ullum	-1434
▁McCullum	-1435
▁Khad	-1436
▁Aslam	-1437
qs	-1438
qsood	-1439
▁Maqsood	-1440
▁Tur	-1441
▁Arsh	-1442
oen	-1443
avo	-1444
ambo	-1445
▁Rab	-1446
▁Kaleem	-1447
▁Raz	-1448
ewis	-1449
▁Lewis	-1450
mus	-1451
▁DP	-1452
▁NN	-1453
▁Marsh	-1454
osh	-1455
▁bowled	-1456
▁Jones	-1457
per	-1458
hani	-1459
▁Karan	-1460
ko	-1461
▁Bravo	-1462
▁NM	-1463
9:	-1464
odhi	-1465
.9:	-1466
oof	-1467
▁Mohamed	-1468
yce	-1469
▁Fran	-1470
▁Bryce	-1471
▁King	-1472
erg	-1473
▁CS	-1474
▁Nadeem	-1475
ena	-1476
▁Gup	-1477
chi	-1478
ooch	-1479
▁DN	-1480
ashid	-1481
▁Rashid	-1482
▁Gul	-1483
▁Kim	-1484
▁Hayat	-1485
▁IS	-1486
▁Coo	-1487
▁Nawaz	-1488
uthee	-1489
▁Southee	-1490
▁Amin	-1491
▁DS	-1492
ez	-1493
je	-1494
▁Ed	-1495
▁TS	-1496
▁Flet	-1497
▁Fletcher	-1498
wardene	-1499
▁Siddi	-1500
nand	-1501
swana	-1502
▁Botswana	-1503
▁Mandhana	-1504
ro	-1505
▁Sodhi	-1506
▁Canada	-1507
▁HC	-1508
▁Rath	-1509
▁Fernand	-1510
hsan	-1511
▁Wat	-1512
ato	-1513
▁Bates	-1514
alla	-1515
▁Wy	-1516
▁YS	-1517
hesh	-1518
▁Haz	-1519
jar	-1520
min	-1521
▁1.7:	-1522
erth	-1523
sell	-1524
▁Magar	-1525
▁Ai	-1526
▁Airee	-1527
▁Mahesh	-1528
▁Sak	-1529
▁Zah	-1530
arth	-1531
apan	-1532
inder	-1533
▁Sham	-1534
▁Max	-1535
uang	-1536
▁Wal	-1537
▁CL	-1538
umya	-1539
▁Kon	-1540
ako	-1541
babazi	-1542
▁Hen	-1543
▁RS	-1544
sain	-1545
▁Hussain	-1546
▁AU	-1547
oney	-1548
▁Mooney	-1549
▁Jer	-1550
▁Mbabazi	-1551
ipp	-1552
▁Od	-1553
ora	-1554
▁Japan	-1555
oro	-1556
▁Ven	-1557
atham	-1558
▁Shar	-1559
izur	-1560
▁Mustafizur	-1561
kes	-1562
▁Gay	-1563
▁Ras	-1564
god	-1565
▁AK	-1566
kram	-1567
▁Edward	-1568
▁Malik	-1569
tar	-1570
▁GC	-1571
▁AB	-1572
▁Wyatt	-1573
▁Sat	-1574
▁ER	-1575
▁Oza	-1576
lan	-1577
▁Kol	-1578
ukla	-1579
▁Shukla	-1580
▁NK	-1581
ling	-1582
ford	-1583
gi	-1584
mah	-1585
nan	-1586
ampa	-1587
▁Hafeez	-1588
▁Mahmudullah	-1589
▁Edwards	-1590
▁3.7:	-1591
▁JR	-1592
aratne	-1593
omas	-1594
▁GD	-1595
▁0.7:	-1596
▁IJ	-1597
▁4.7:	-1598
eni	-1599
▁LN	-1600
▁Maxwell	-1601
▁NJ	-1602
odri	-1603
els	-1604
ert	-1605
▁Rodri	-1606
▁Kapp	-1607
erica	-1608
▁States	-1609
▁America	-1610
lov	-1611
▁Benn	-1612
brah	-1613
▁War	-1614
brahim	-1615
▁CH	-1616
▁Fernando	-1617
assen	-1618
VD	-1619
▁Ban	-1620
▁Hun	-1621
▁Schutt	-1622
▁Poll	-1623
▁BL	-1624
▁Vin	-1625
▁2.7:	-1626
▁Adair	-1627
▁Maroof	-1628
ama	-1629
▁Zw	-1630
illing	-1631
▁Zwilling	-1632
▁Johnson	-1633
▁Dan	-1634
▁DR	-1635
omp	-1636
▁Ver	-1637
▁IJR	-1638
▁Eras	-1639
jee	-1640
▁Ngo	-1641
▁Ehsan	-1642
▁Ngoche	-1643
▁Ber	-1644
▁Saud	-1645
▁Murtaza	-1646
▁Tari	-1647
▁Jord	-1648
▁Qatar	-1649
▁Watson	-1650
wari	-1651
▁DL	-1652
▁Leede	-1653
▁Ul	-1654
▁Akh	-1655
iruang	-1656
▁Sutth	-1657
ergaard	-1658
▁Sutthiruang	-1659
▁TA	-1660
▁Bin	-1661
▁Shadab	-1662
▁Wasim	-1663
iran	-1664
▁MK	-1665
rick	-1666
gan	-1667
▁Siri	-1668
▁Malinga	-1669
▁Abel	-1670
▁Finch	-1671
gers	-1672
▁McG	-1673
▁Buttler	-1674
▁Poor	-1675
▁KY	-1676
▁RL	-1677
cc	-1678
izaz	-1679
▁Aizaz	-1680
▁Ses	-1681
▁Sher	-1682
▁La	-1683
▁Bis	-1684
▁KKN	-1685
▁Egod	-1686
▁Egodage	-1687
▁Pav	-1688
▁Erasmus	-1689
▁5.7:	-1690
uuy	-1691
uuyi	-1692
▁Omar	-1693
▁Nakis	-1694
▁Nakisuuyi	-1695
hari	-1696
▁Sie	-1697
▁Siegers	-1698
erson	-1699
▁Nah	-1700
▁Chat	-1701
▁Bismah	-1702
rath	-1703
▁David	-1704
▁Gib	-1705
▁Mer	-1706
▁Jon	-1707
▁Haris	-1708
▁Tam	-1709
mer	-1710
▁Ho	-1711
oto	-1712
ria	-1713
▁Das	-1714
▁Stir	-1715
▁Stirling	-1716
▁du	-1717
▁WK	-1718
▁Burl	-1719
▁Wang	-1720
ho	-1721
och	-1722
▁Bl	-1723
▁Nor	-1724
▁Ran	-1725
▁Piet	-1726
rien	-1727
itz	-1728
akad	-1729
▁Wil	-1730
ayake	-1731
▁Ud	-1732
▁Mot	-1733
till	-1734
▁Guptill	-1735
akadza	-1736
▁Masakadza	-1737
kerk	-1738
▁Nie	-1739
▁Paul	-1740
▁Niekerk	-1741
▁Gl	-1742
heed	-1743
▁Alam	-1744
▁Nahida	-1745
▁Lin	-1746
▁Pollard	-1747
etz	-1748
▁Jordan	-1749
▁Rum	-1750
▁Amar	-1751
▁Sarf	-1752
▁Mart	-1753
hedi	-1754
Brien	-1755
▁Hash	-1756
wani	-1757
▁Muk	-1758
▁Gard	-1759
▁Malta	-1760
▁Gardner	-1761
ccle	-1762
▁Eccle	-1763
▁Ecclestone	-1764
▁JW	-1765
heen	-1766
▁AL	-1767
▁Kla	-1768
oseph	-1769
▁Joseph	-1770
▁Rodrigu	-1771
▁RK	-1772
▁Jam	-1773
▁Mish	-1774
▁Ibrahim	-1775
mi	-1776
▁Chah	-1777
kin	-1778
▁Stokes	-1779
▁SN	-1780
▁Hill	-1781
▁Tariq	-1782
▁Coetz	-1783
irs	-1784
▁Sami	-1785
▁Pooran	-1786
▁Aj	-1787
anga	-1788
▁Rodrigues	-1789
kai	-1790
▁Bas	-1791
▁Con	-1792
oenkai	-1793
▁Konchar	-1794
▁Koncharoenkai	-1795
irah	-1796
▁Rub	-1797
ingam	-1798
urais	-1799
▁Nakr	-1800
▁Durais	-1801
▁Nakrani	-1802
▁Duraisingam	-1803
tt	-1804
arc	-1805
tty	-1806
▁Ain	-1807
TC	-1808
▁Id	-1809
nell	-1810
▁Hol	-1811
▁NLTC	-1812
▁Verma	-1813
▁Su	-1814
▁Austria	-1815
owd	-1816
▁Shr	-1817
lyas	-1818
▁Ilyas	-1819
errington	-1820
mo	-1821
lem	-1822
▁ST	-1823
▁Faheem	-1824
▁DJS	-1825
ottin	-1826
▁Booch	-1827
▁Dottin	-1828
▁Boochatham	-1829
nie	-1830
▁Healy	-1831
buya	-1832
▁Obuya	-1833
▁Mush	-1834
▁Shahzad	-1835
▁KE	-1836
▁Gill	-1837
▁Cur	-1838
ata	-1839
inghe	-1840
itha	-1841
▁ME	-1842
▁Sand	-1843
▁Smit	-1844
▁AN	-1845
▁IK	-1846
▁Lange	-1847
▁Vijay	-1848
▁Kamran	-1849
▁Shaheen	-1850
▁Bak	-1851
▁Kha	-1852
▁Akmal	-1853
amali	-1854
▁Cham	-1855
enderg	-1856
endergast	-1857
▁Prendergast	-1858
awi	-1859
▁Kumari	-1860
▁Warner	-1861
yn	-1862
waite	-1863
▁Witt	-1864
▁Wittmann	-1865
▁Mol	-1866
▁Tanv	-1867
▁Berrington	-1868
▁Rus	-1869
▁Hend	-1870
zai	-1871
▁LS	-1872
oden	-1873
▁Choden	-1874
right	-1875
▁Ahir	-1876
erland	-1877
▁Gough	-1878
ale	-1879
ampi	-1880
▁Be	-1881
▁Nk	-1882
▁May	-1883
▁PWH	-1884
adeja	-1885
▁Jadeja	-1886
▁MNM	-1887
▁Holder	-1888
▁Ahmadi	-1889
asekara	-1890
ricks	-1891
weera	-1892
▁Zampa	-1893
▁Ashwin	-1894
▁Hendricks	-1895
▁Sp	-1896
weko	-1897
▁Nat	-1898
▁Aweko	-1899
▁Merwe	-1900
▁Kr	-1901
▁Joy	-1902
esan	-1903
▁pick	-1904
ki	-1905
een	-1906
▁JI	-1907
▁Sen	-1908
▁Nash	-1909
▁Mathews	-1910
mai	-1911
▁Zal	-1912
▁Zalmai	-1913
▁Jen	-1914
▁Wright	-1915
ire	-1916
atu	-1917
our	-1918
▁Arta	-1919
▁Ashraf	-1920
erra	-1921
ghal	-1922
▁Leone	-1923
▁Mishra	-1924
▁Mughal	-1925
▁Sierra	-1926
uman	-1927
▁Brunt	-1928
▁Riazat	-1929
▁Russell	-1930
akat	-1931
uels	-1932
▁Samuels	-1933
its	-1934
▁Tu	-1935
▁Ron	-1936
▁Saeed	-1937
▁Norway	-1938
SD	-1939
▁Islands	-1940
tor	-1941
wad	-1942
▁Lak	-1943
▁Rom	-1944
▁8.7:	-1945
hit	-1946
▁Kun	-1947
amson	-1948
▁6.7:	-1949
▁Baig	-1950
▁Williamson	-1951
▁Lee	-1952
▁10.7:	-1953
▁IO	-1954
ary	-1955
▁KL	-1956
ique	-1957
▁Waseem	-1958
WR	-1959
▁Cooper	-1960
▁My	-1961
▁Jersey	-1962
▁Siddique	-1963
urt	-1964
▁Aam	-1965
▁X	-1966
▁BK	-1967
▁Fah	-1968
▁Rohan	-1969
▁Andre	-1970
▁Iz	-1971
▁Niy	-1972
▁Tahir	-1973
so	-1974
▁CB	-1975
pher	-1976
▁Pow	-1977
▁Yasir	-1978
▁Powell	-1979
▁Muz	-1980
▁Dawood	-1981
iny	-1982
▁MH	-1983
esha	-1984
osein	-1985
▁7.7:	-1986
▁Watt	-1987
▁Hosein	-1988
isal	-1989
▁Shafali	-1990
▁Lam	-1991
▁16.7:	-1992
▁Thu	-1993
▁Ngar	-1994
▁Ngarava	-1995
chan	-1996
▁Dus	-1997
pr	-1998
sar	-1999
▁15.7:	-2000
▁Niz	-2001
▁Som	-2002
awong	-2003
▁Putth	-2004
▁Nizakat	-2005
▁Putthawong	-2006
▁9.7:	-2007
▁Yasim	-2008
▁Bro	-2009
▁Barma	-2010
▁DK	-2011
▁JS	-2012
▁Ky	-2013
Dowd	-2014
▁Botha	-2015
▁Nav	-2016
ern	-2017
▁Rauf	-2018
▁Hu	-2019
hane	-2020
ryon	-2021
▁11.7:	-2022
▁Tryon	-2023
▁Faisal	-2024
▁RC	-2025
bashi	-2026
▁Belbashi	-2027
▁14.7:	-2028
▁Young	-2029
SM	-2030
▁Dha	-2031
▁MRJ	-2032
▁Zaf	-2033
▁Dhawan	-2034
▁Gur	-2035
pherd	-2036
▁Shepherd	-2037
▁Mos	-2038
▁Luus	-2039
hite	-2040
ijke	-2041
▁White	-2042
▁13.7:	-2043
iq	-2044
shan	-2045
▁Hashim	-2046
ushal	-2047
▁Vanu	-2048
▁Nigar	-2049
▁Mahmood	-2050
utan	-2051
▁Ramj	-2052
▁Bhutan	-2053
tam	-2054
▁Aliya	-2055
ezu	-2056
▁Ansh	-2057
birnie	-2058
▁Balbirnie	-2059
▁Rijke	-2060
jid	-2061
▁To	-2062
▁Maz	-2063
ston	-2064
ti	-2065
▁NT	-2066
uta	-2067
▁Aung	-2068
▁Dum	-2069
▁Zafar	-2070
▁Duminy	-2071
▁Arshad	-2072
▁France	-2073
ado	-2074
▁AF	-2075
meen	-2076
▁Bul	-2077
▁Saad	-2078
▁Yasmeen	-2079
orkel	-2080
▁Morkel	-2081
askin	-2082
▁Taskin	-2083
uja	-2084
▁12.7:	-2085
▁Broad	-2086
▁Taran	-2087
▁Sesazi	-2088
aba	-2089
▁Stan	-2090
▁Murali	-2091
oti	-2092
▁LL	-2093
urtel	-2094
▁Murr	-2095
▁Bhurtel	-2096
▁Pandey	-2097
▁Jonassen	-2098
▁PD	-2099
ian	-2100
▁Campb	-2101
▁Henry	-2102
▁HJ	-2103
▁Miya	-2104
ayy	-2105
eden	-2106
garia	-2107
▁Bulgaria	-2108
iko	-2109
ondo	-2110
▁Sharif	-2111
ulam	-2112
▁Kuldeep	-2113
▁AP	-2114
▁Agar	-2115
▁Nass	-2116
▁Sain	-2117
▁Nassoro	-2118
dy	-2119
▁Siriwardene	-2120
▁Yu	-2121
abani	-2122
▁Rahim	-2123
▁Lit	-2124
▁Khus	-2125
▁Shor	-2126
▁Musamali	-2127
iswa	-2128
▁Neh	-2129
▁Waiswa	-2130
▁Joyce	-2131
▁Saudi	-2132
▁Arabia	-2133
▁Anshuman	-2134
▁Niss	-2135
raltar	-2136
▁Matome	-2137
▁Nissanka	-2138
▁Gibraltar	-2139
▁Dor	-2140
aina	-2141
pace	-2142
▁Odhi	-2143
▁take	-2144
▁space	-2145
▁Odhiambo	-2146
▁Gan	-2147
▁Mil	-2148
amper	-2149
▁17.7:	-2150
▁Chantam	-2151
▁scamper	-2152
chomp	-2153
▁Kami	-2154
chomphu	-2155
▁Sompal	-2156
▁Kamchomphu	-2157
▁Il	-2158
▁Zak	-2159
uda	-2160
▁Ko	-2161
▁LK	-2162
ori	-2163
▁TH	-2164
arus	-2165
▁All	-2166
▁HASD	-2167
▁EAJ	-2168
▁Gree	-2169
ela	-2170
araj	-2171
eeker	-2172
▁Malawi	-2173
▁Cr	-2174
▁Ramjani	-2175
▁Sel	-2176
▁Wah	-2177
▁Josh	-2178
▁Curran	-2179
▁Ghulam	-2180
▁Wai	-2181
▁Kalis	-2182
▁Campher	-2183
▁Lanning	-2184
▁Vanuatu	-2185
▁Ge	-2186
mond	-2187
eekeren	-2188
▁Shetty	-2189
▁Meekeren	-2190
uga	-2191
▁Romania	-2192
uka	-2193
▁FA	-2194
ayan	-2195
▁ASS	-2196
▁JDS	-2197
esham	-2198
▁Khiz	-2199
▁Muzar	-2200
▁Neesham	-2201
▁Muzarabani	-2202
izah	-2203
▁Ainna	-2204
▁Hamizah	-2205
▁Priy	-2206
▁Waheed	-2207
azil	-2208
▁Phil	-2209
▁Chahal	-2210
▁Priyada	-2211
▁PM	-2212
zamb	-2213
▁Mozamb	-2214
▁Mozambique	-2215
▁LJ	-2216
▁Mac	-2217
iqu	-2218
▁Saini	-2219
▁GK	-2220
reet	-2221
preet	-2222
▁Imad	-2223
▁Dilhari	-2224
fu	-2225
▁Dock	-2226
▁Schol	-2227
▁Dockrell	-2228
tz	-2229
▁Te	-2230
▁Bad	-2231
yl	-2232
sha	-2233
▁Uma	-2234
▁Zyl	-2235
field	-2236
▁Thakor	-2237
▁Scholtz	-2238
aq	-2239
▁GP	-2240
▁Tr	-2241
▁Kamun	-2242
▁DE	-2243
▁Ev	-2244
▁LR	-2245
lysa	-2246
▁Elysa	-2247
▁Evans	-2248
▁Leask	-2249
▁SV	-2250
asuri	-2251
asuriya	-2252
▁Mustafa	-2253
lovu	-2254
▁Ndlovu	-2255
eeq	-2256
▁Raja	-2257
▁Gayle	-2258
▁Salman	-2259
inis	-2260
▁Aamir	-2261
▁Rumana	-2262
▁Stoinis	-2263
▁BB	-2264
▁PJ	-2265
iman	-2266
▁Lyn	-2267
uhu	-2268
▁BF	-2269
▁CK	-2270
▁BKG	-2271
▁LMM	-2272
▁Sol	-2273
▁Tou	-2274
▁Tahuhu	-2275
▁Che	-2276
akash	-2277
arthy	-2278
▁McCarthy	-2279
bar	-2280
eyn	-2281
ayezu	-2282
▁Mirza	-2283
▁Akayezu	-2284
ija	-2285
ook	-2286
▁Ng	-2287
ertha	-2288
asinghe	-2289
▁Satish	-2290
▁Theertha	-2291
uff	-2292
▁JK	-2293
▁Munee	-2294
▁Italy	-2295
▁Malla	-2296
▁DC	-2297
▁Rob	-2298
▁GA	-2299
▁RE	-2300
lerk	-2301
▁Klerk	-2302
▁Miller	-2303
▁Ajmal	-2304
▁Tsh	-2305
▁18.7:	-2306
▁Salma	-2307
▁Bra	-2308
▁Zul	-2309
▁Tom	-2310
▁Glenn	-2311
▁Gr	-2312
abod	-2313
▁KDU	-2314
▁Prabod	-2315
▁Prabodhani	-2316
▁Mills	-2317
vi	-2318
iese	-2319
▁Wiese	-2320
▁Zaman	-2321
▁MDK	-2322
adavi	-2323
▁Steyn	-2324
▁Madavi	-2325
▁Thomas	-2326
▁Ren	-2327
▁Ravi	-2328
eaum	-2329
▁Amna	-2330
▁Beaum	-2331
▁Beaumont	-2332
▁Bos	-2333
▁Raw	-2334
▁HD	-2335
▁Ayan	-2336
eera	-2337
▁CJA	-2338
▁Amini	-2339
▁Shams	-2340
▁Brown	-2341
▁Kod	-2342
▁EJG	-2343
▁Berm	-2344
▁Ware	-2345
▁Tamim	-2346
▁Morgan	-2347
▁Wareham	-2348
▁Yasin	-2349
▁Aar	-2350
▁Fak	-2351
ergaardt	-2352
▁Diergaardt	-2353
aser	-2354
▁Siaka	-2355
▁Fraser	-2356
▁Coetzee	-2357
jeet	-2358
▁Raina	-2359
lar	-2360
▁Spain	-2361
▁Gal	-2362
▁Khushi	-2363
▁CO	-2364
ines	-2365
umbe	-2366
ippines	-2367
▁Philippines	-2368
anya	-2369
ylin	-2370
ylinck	-2371
▁Rabada	-2372
▁Frylinck	-2373
▁SE	-2374
ctor	-2375
▁Fahima	-2376
▁NP	-2377
akkara	-2378
aved	-2379
oult	-2380
▁Boult	-2381
▁Javed	-2382
othar	-2383
▁Saim	-2384
▁Rahul	-2385
▁Abbasi	-2386
▁Ward	-2387
eks	-2388
▁Geor	-2389
ekshana	-2390
▁Theekshana	-2391
▁Izz	-2392
▁Arora	-2393
▁Cy	-2394
zech	-2395
▁Mans	-2396
▁Patil	-2397
ni	-2398
seny	-2399
▁NND	-2400
▁Dutt	-2401
▁Sseny	-2402
▁Ssenyondo	-2403
▁HE	-2404
got	-2405
yder	-2406
▁Pet	-2407
▁Jumbe	-2408
wimana	-2409
▁Ronald	-2410
umar	-2411
▁Arg	-2412
▁Starc	-2413
▁Sur	-2414
itche	-2415
▁Vraj	-2416
zal	-2417
▁Sadia	-2418
gus	-2419
▁Mi	-2420
guson	-2421
▁Clar	-2422
ichhane	-2423
▁Ferguson	-2424
▁Lamichhane	-2425
▁MDKJ	-2426
▁Waqar	-2427
andy	-2428
▁Den	-2429
▁BN	-2430
▁JH	-2431
▁Klaas	-2432
▁Fakhar	-2433
▁Hussey	-2434
▁Pathan	-2435
ote	-2436
cker	-2437
▁HAM	-2438
▁Tucker	-2439
edi	-2440
▁Kimote	-2441
lic	-2442
pub	-2443
Brun	-2444
asif	-2445
bour	-2446
udel	-2447
Brunt	-2448
public	-2449
▁19.7:	-2450
▁Aasif	-2451
▁Czech	-2452
▁Paudel	-2453
▁Republic	-2454
mood	-2455
▁Vala	-2456
▁Izzati	-2457
▁Mahirah	-2458
▁Mehmood	-2459
▁Ranaweera	-2460
fan	-2461
ulla	-2462
▁Ser	-2463
▁Ross	-2464
andari	-2465
▁Bennett	-2466
▁Cam	-2467
▁Malan	-2468
▁Shanaka	-2469
ubwimana	-2470
xem	-2471
bourg	-2472
▁Myan	-2473
▁Luxem	-2474
▁Myanmar	-2475
▁Pavandeep	-2476
▁Luxembourg	-2477
▁Satt	-2478
▁VP	-2479
mark	-2480
apath	-2481
▁Bell	-2482
▁Farh	-2483
▁Tham	-2484
otharam	-2485
▁Renuka	-2486
▁Denmark	-2487
▁Thamotharam	-2488
woe	-2489
akar	-2490
▁Bau	-2491
▁Anam	-2492
▁Hawoe	-2493
uddin	-2494
▁Taranjeet	-2495
ardt	-2496
olva	-2497
iandy	-2498
▁Vanua	-2499
▁Wolva	-2500
▁Dilshan	-2501
▁Muniandy	-2502
▁Wolvaardt	-2503
▁Div	-2504
▁Ramd	-2505
▁Sula	-2506
▁HG	-2507
▁Waqas	-2508
▁CE	-2509
▁Mash	-2510
▁Jahan	-2511
▁Majid	-2512
▁Faiz	-2513
▁Afzal	-2514
adz	-2515
bom	-2516
▁OH	-2517
▁Ift	-2518
adzie	-2519
▁Agbom	-2520
▁Miles	-2521
▁Agbomadzie	-2522
apman	-2523
▁Chapman	-2524
angika	-2525
▁Sarkar	-2526
▁Soumya	-2527
alo	-2528
uce	-2529
lins	-2530
▁DMW	-2531
▁Bhav	-2532
▁Meet	-2533
▁Rish	-2534
▁Bruce	-2535
▁Ervine	-2536
▁Rawlins	-2537
▁Ahmadzai	-2538
ave	-2539
ande	-2540
▁Venkat	-2541
▁PZ	-2542
sole	-2543
▁Dam	-2544
ubsole	-2545
ishnave	-2546
▁Kamunya	-2547
▁Shrubsole	-2548
▁Vaishnave	-2549
▁EL	-2550
▁Jak	-2551
stonia	-2552
▁Joshi	-2553
▁Estonia	-2554
unaek	-2555
▁Banunaek	-2556
KEG	-2557
▁MB	-2558
chik	-2559
▁IKEG	-2560
▁Mupa	-2561
chikwa	-2562
▁Camer	-2563
▁Hazell	-2564
▁Morris	-2565
▁Thaker	-2566
▁Artawan	-2567
▁Mupachikwa	-2568
ui	-2569
▁HR	-2570
ubag	-2571
▁Bum	-2572
utler	-2573
▁Bumrah	-2574
ubagumya	-2575
▁Rububagumya	-2576
▁LE	-2577
▁Hor	-2578
▁PVD	-2579
▁Chameera	-2580
DN	-2581
▁Ol	-2582
rack	-2583
ikhar	-2584
▁KMDN	-2585
▁Kunwar	-2586
▁Sweden	-2587
▁Iftikhar	-2588
▁Shadrack	-2589
▁Kulasekara	-2590
Le	-2591
astr	-2592
▁Vastr	-2593
▁Vastrakar	-2594
sub	-2595
▁Nsub	-2596
▁Villi	-2597
▁Nsubuga	-2598
▁Villiers	-2599
▁IA	-2600
▁Mayers	-2601
leming	-2602
▁Hunter	-2603
▁Naseem	-2604
▁Ronalds	-2605
▁Go	-2606
▁TP	-2607
▁Nis	-2608
lewood	-2609
▁Mahedi	-2610
▁Bhavsar	-2611
▁Hazlewood	-2612
PL	-2613
▁MV	-2614
▁WP	-2615
ovic	-2616
▁LRPL	-2617
▁Zain	-2618
▁BR	-2619
▁SB	-2620
▁Zuba	-2621
▁Allen	-2622
elle	-2623
▁Bag	-2624
▁Campbelle	-2625
tika	-2626
▁Gaman	-2627
▁Thakur	-2628
▁Gamantika	-2629
▁Bo	-2630
enge	-2631
erji	-2632
▁Chase	-2633
▁Chatt	-2634
▁Short	-2635
▁Chatterji	-2636
ewi	-2637
▁Rit	-2638
umb	-2639
▁TJ	-2640
rafe	-2641
▁Des	-2642
▁Win	-2643
andran	-2644
▁Ravich	-2645
▁Mortaza	-2646
▁Mashrafe	-2647
▁Ravichandran	-2648
▁Prakash	-2649
usa	-2650
▁EN	-2651
▁Lynch	-2652
aar	-2653
▁Fat	-2654
▁Puja	-2655
▁Seel	-2656
▁Mahato	-2657
▁Seelaar	-2658
si	-2659
irip	-2660
iripano	-2661
mul	-2662
▁Boh	-2663
iteng	-2664
▁China	-2665
▁Bohara	-2666
▁Murray	-2667
▁Nazmul	-2668
▁Akiteng	-2669
▁Nampi	-2670
▁Nampiina	-2671
▁Gunaratne	-2672
▁Nar	-2673
▁Adnan	-2674
rar	-2675
rioti	-2676
▁Mari	-2677
▁Syrioti	-2678
uoch	-2679
▁Oluoch	-2680
▁Bermuda	-2681
iaq	-2682
omi	-2683
yam	-2684
▁Khaka	-2685
▁Laomi	-2686
▁Brits	-2687
▁Munsey	-2688
▁Zahoor	-2689
▁Cart	-2690
▁Ob	-2691
ifert	-2692
▁BMSM	-2693
▁Motl	-2694
▁Bosch	-2695
▁Seifert	-2696
▁CT	-2697
lein	-2698
alage	-2699
▁Sang	-2700
▁Klein	-2701
araz	-2702
▁Kock	-2703
▁Sarfaraz	-2704
▁Ing	-2705
▁DT	-2706
madi	-2707
chira	-2708
itchell	-2709
▁Wachira	-2710
▁Mitchell	-2711
cewell	-2712
▁Cross	-2713
▁Shamsi	-2714
▁Shorif	-2715
▁Bracewell	-2716
Br	-2717
▁Jat	-2718
▁Vijh	-2719
▁Jatinder	-2720
vere	-2721
hevere	-2722
▁Madhevere	-2723
▁Ke	-2724
▁Saif	-2725
▁Tector	-2726
▁Samoa	-2727
▁Av	-2728
▁MI	-2729
▁LV	-2730
leman	-2731
▁Irfan	-2732
▁Abdullah	-2733
▁Arshdeep	-2734
div	-2735
▁CV	-2736
▁DJG	-2737
dives	-2738
▁Ghana	-2739
▁Sammy	-2740
▁Karanbir	-2741
▁Maldives	-2742
ips	-2743
▁TK	-2744
gium	-2745
illips	-2746
▁Little	-2747
▁Belgium	-2748
▁Phillips	-2749
▁HT	-2750
▁Haroon	-2751
itsa	-2752
rey	-2753
waki	-2754
▁Jan	-2755
▁Kado	-2756
▁Poon	-2757
anayake	-2758
▁Kadowaki	-2759
eir	-2760
eon	-2761
ken	-2762
▁Kor	-2763
▁Mab	-2764
▁KP	-2765
wino	-2766
▁Awino	-2767
▁Nazir	-2768
po	-2769
prus	-2770
▁SCJ	-2771
▁Hales	-2772
▁Cyprus	-2773
▁IM	-2774
andana	-2775
▁Switz	-2776
▁Badree	-2777
▁Priandana	-2778
▁Switzerland	-2779
▁Red	-2780
▁Andrew	-2781
▁LH	-2782
ster	-2783
▁Gaur	-2784
▁Mond	-2785
▁Liton	-2786
▁Khadija	-2787
MD	-2788
bia	-2789
▁DG	-2790
akoze	-2791
▁Nashra	-2792
▁Sandhu	-2793
▁Serbia	-2794
▁Finland	-2795
▁Irakoze	-2796
atia	-2797
▁Gor	-2798
anage	-2799
▁Motlanka	-2800
▁Venkatesh	-2801
▁Les	-2802
▁Atif	-2803
▁Mansale	-2804
kova	-2805
▁Mok	-2806
▁Mom	-2807
▁Carter	-2808
wai	-2809
▁SD	-2810
▁Jack	-2811
▁Nag	-2812
▁Chaya	-2813
▁Lakov	-2814
ili	-2815
▁AG	-2816
hzad	-2817
▁Shehzad	-2818
▁Map	-2819
▁Adam	-2820
▁Khadka	-2821
abo	-2822
▁Tau	-2823
▁Til	-2824
erthwaite	-2825
▁Satterthwaite	-2826
▁Ruk	-2827
ongwe	-2828
▁Janak	-2829
▁Jongwe	-2830
▁Akhil	-2831
▁Markram	-2832
jeeb	-2833
chand	-2834
▁Chil	-2835
▁Mariam	-2836
▁Muneeba	-2837
▁Li	-2838
▁Ut	-2839
▁Bull	-2840
▁Manpreet	-2841
ile	-2842
ula	-2843
▁Wan	-2844
Fleming	-2845
▁Mut	-2846
▁Miyaji	-2847
▁Unni	-2848
▁Ayesha	-2849
▁Diviya	-2850
chandani	-2851
onde	-2852
phak	-2853
ashar	-2854
▁Sene	-2855
phakedi	-2856
▁Nehonde	-2857
▁Mophakedi	-2858
lig	-2859
gary	-2860
▁Hab	-2861
▁Hungary	-2862
ijk	-2863
▁HN	-2864
▁NA	-2865
fiqu	-2866
▁Roy	-2867
fiqur	-2868
▁Shin	-2869
▁Chandel	-2870
▁Shinwari	-2871
▁Mushfiqur	-2872
usuf	-2873
▁Lo	-2874
▁Liy	-2875
▁Nava	-2876
▁Sakib	-2877
▁Navaika	-2878
▁BFW	-2879
▁Bib	-2880
▁Koda	-2881
▁Niyom	-2882
▁Butler	-2883
▁Fatima	-2884
wi	-2885
iraj	-2886
ladi	-2887
▁HDJ	-2888
amont	-2889
▁Immadi	-2890
amontree	-2891
▁Danladi	-2892
▁Senamontree	-2893
▁Tal	-2894
▁Dean	-2895
aiwai	-2896
▁Useni	-2897
▁Ranasinghe	-2898
▁AH	-2899
▁Ny	-2900
vraj	-2901
▁Yuvraj	-2902
▁Ti	-2903
▁Gunn	-2904
▁Veer	-2905
apathiran	-2906
▁Veerapathiran	-2907
mat	-2908
▁Bibi	-2909
ila	-2910
▁Aho	-2911
▁Dhoni	-2912
heer	-2913
▁Munro	-2914
▁PE	-2915
▁Hot	-2916
arafu	-2917
entina	-2918
▁Vinod	-2919
▁Shakeel	-2920
▁Sharafu	-2921
▁Argentina	-2922
▁Hotchandani	-2923
uch	-2924
▁II	-2925
▁Hey	-2926
angmo	-2927
liger	-2928
kareem	-2929
▁Zangmo	-2930
▁Heyliger	-2931
▁Abdulkareem	-2932
omo	-2933
▁Dunk	-2934
▁Nkomo	-2935
▁Jahanara	-2936
hai	-2937
▁Saq	-2938
veria	-2939
▁Vinu	-2940
▁Ghosh	-2941
▁Javeria	-2942
ech	-2943
etsi	-2944
▁Pai	-2945
▁Seb	-2946
▁Mook	-2947
▁Maryam	-2948
▁Mooketsi	-2949
ange	-2950
anna	-2951
▁Marange	-2952
afiq	-2953
▁Basil	-2954
jic	-2955
tom	-2956
▁DW	-2957
▁YM	-2958
▁Siraj	-2959
▁Wilson	-2960
▁Chaiwai	-2961
▁Cameroon	-2962
ele	-2963
ukh	-2964
▁WD	-2965
imon	-2966
sewe	-2967
▁Run	-2968
▁Karun	-2969
▁Parnell	-2970
▁Runsewe	-2971
▁Sulaimon	-2972
▁Karunaratne	-2973
aiwo	-2974
ansh	-2975
▁Erd	-2976
▁Duff	-2977
▁Taiwo	-2978
askaran	-2979
▁Mohameed	-2980
ayyaz	-2981
ernsey	-2982
▁Hamza	-2983
▁Fayyaz	-2984
▁Guernsey	-2985
uru	-2986
▁Shoriful	-2987
▁Abh	-2988
▁Jim	-2989
▁Tak	-2990
ameed	-2991
▁Hoque	-2992
▁Hameed	-2993
▁TC	-2994
▁Ane	-2995
▁Ell	-2996
▁Bart	-2997
▁Bhar	-2998
▁Hyder	-2999
▁Conteh	-3000
▁Mariamma	-3001
esi	-3002
▁Naj	-3003
▁Sun	-3004
lemani	-3005
▁Selemani	-3006
▁Venk	-3007
▁Cum	-3008
▁SPD	-3009
▁Dick	-3010
▁Narine	-3011
asa	-3012
▁Mud	-3013
▁Conway	-3014
▁Mudass	-3015
▁Tanvir	-3016
sis	-3017
▁Ayub	-3018
▁Ples	-3019
▁Aminata	-3020
▁Plessis	-3021
▁Ik	-3022
▁PS	-3023
▁RN	-3024
▁SH	-3025
▁DEM	-3026
▁Prad	-3027
avia	-3028
elly	-3029
ghav	-3030
▁Mang	-3031
▁Kelly	-3032
vin	-3033
▁GM	-3034
dijk	-3035
mins	-3036
▁Megh	-3037
ahashi	-3038
▁Garth	-3039
▁Willey	-3040
▁Cummins	-3041
▁Overdijk	-3042
▁Takahashi	-3043
ux	-3044
▁Ro	-3045
ineux	-3046
▁Dussen	-3047
▁Tanzim	-3048
▁Molineux	-3049
uj	-3050
▁SIR	-3051
▁Coll	-3052
irstow	-3053
▁Dunkley	-3054
▁Bairstow	-3055
▁Has	-3056
▁Kes	-3057
▁Tri	-3058
▁Char	-3059
▁Karim	-3060
▁Samson	-3061
▁Shafina	-3062
▁Ndik	-3063
▁Sathe	-3064
▁Martin	-3065
▁Poonam	-3066
▁Liyanage	-3067
▁Ndikubwimana	-3068
lim	-3069
reez	-3070
uzwe	-3071
▁Yar	-3072
▁Preez	-3073
▁Ikuzwe	-3074
▁Muslim	-3075
▁HV	-3076
akumar	-3077
▁Fo	-3078
hang	-3079
▁Cay	-3080
▁Ste	-3081
▁Dlam	-3082
▁Cayman	-3083
▁Connell	-3084
▁Dlamini	-3085
▁Tad	-3086
▁Zad	-3087
edeji	-3088
▁Afif	-3089
▁Asim	-3090
▁Pant	-3091
▁Anjar	-3092
▁Zadran	-3093
▁Adedeji	-3094
▁Tadarus	-3095
kh	-3096
▁Dub	-3097
chard	-3098
▁Niaz	-3099
▁Perchard	-3100
idhar	-3101
▁Umair	-3102
▁EC	-3103
qman	-3104
▁Luqman	-3105
▁HNK	-3106
▁Tuy	-3107
▁Jensen	-3108
fa	-3109
▁NS	-3110
▁Cha	-3111
ickram	-3112
oi	-3113
▁ID	-3114
yer	-3115
enia	-3116
▁HMD	-3117
▁Iyer	-3118
▁Khizar	-3119
▁Rasangika	-3120
ane	-3121
▁Nip	-3122
▁Nipiko	-3123
▁Anderson	-3124
0:	-3125
.10:	-3126
anag	-3127
▁Kas	-3128
▁Brazil	-3129
gg	-3130
hek	-3131
ier	-3132
▁Os	-3133
▁Manish	-3134
▁Peterson	-3135
jo	-3136
add	-3137
▁Zu	-3138
▁Lim	-3139
▁Mak	-3140
▁Dhar	-3141
▁Vinay	-3142
ete	-3143
tiaq	-3144
▁Ikram	-3145
▁Ishtiaq	-3146
gana	-3147
▁Rossi	-3148
▁Naveed	-3149
▁Wangmo	-3150
▁FC	-3151
▁Jaya	-3152
ishnan	-3153
▁AI	-3154
wala	-3155
▁JDP	-3156
▁Oram	-3157
▁Habib	-3158
▁Sangakkara	-3159
ns	-3160
Leod	-3161
boob	-3162
▁Greece	-3163
akrishnan	-3164
odia	-3165
▁Camb	-3166
▁Maga	-3167
▁Kanan	-3168
▁Nadir	-3169
▁Cambodia	-3170
KWR	-3171
ita	-3172
jun	-3173
iriza	-3174
▁Dewi	-3175
▁Ahsan	-3176
▁Arjun	-3177
▁NLKWR	-3178
▁Rukiriza	-3179
▁LC	-3180
hir	-3181
▁KR	-3182
shida	-3183
▁Maya	-3184
▁Rishad	-3185
▁Murshida	-3186
swat	-3187
▁Eswat	-3188
▁Eswatini	-3189
geri	-3190
mons	-3191
▁Vare	-3192
▁Brook	-3193
▁Motie	-3194
▁Kushal	-3195
▁Mugeri	-3196
Tiripano	-3197
▁Simmons	-3198
▁Saifuddin	-3199
iao	-3200
▁Za	-3201
▁KIC	-3202
umani	-3203
▁Asal	-3204
▁McGrath	-3205
▁Asalanka	-3206
▁Marumani	-3207
▁Cro	-3208
▁LMP	-3209
▁Liv	-3210
goitsa	-3211
▁Abrar	-3212
▁Living	-3213
▁Khagoitsa	-3214
▁Livingstone	-3215
▁Kap	-3216
▁AV	-3217
▁CP	-3218
igbe	-3219
da	-3220
iraz	-3221
uwan	-3222
▁Pad	-3223
▁Zia	-3224
▁Shiraz	-3225
▁Chatara	-3226
▁MacLeod	-3227
▁Tanveer	-3228
inds	-3229
▁Set	-3230
▁DPMD	-3231
▁Hinds	-3232
▁Ngidi	-3233
▁Sidra	-3234
▁Jayawardene	-3235
▁Ml	-3236
▁Kot	-3237
▁Mlaba	-3238
▁Ganesan	-3239
isenge	-3240
▁Tuyisenge	-3241
▁Jayasuriya	-3242
▁CW	-3243
rees	-3244
rist	-3245
▁Dal	-3246
areme	-3247
▁Idrees	-3248
▁Ravind	-3249
▁Sebareme	-3250
▁NW	-3251
ugal	-3252
wase	-3253
▁Kis	-3254
▁Port	-3255
▁Uwase	-3256
▁Daswani	-3257
▁Portugal	-3258
▁Bor	-3259
▁Lat	-3260
▁RMVD	-3261
cun	-3262
cunova	-3263
▁Shanto	-3264
▁Kolcunova	-3265
bur	-3266
▁MO	-3267
▁ZL	-3268
▁Bop	-3269
▁Jha	-3270
▁Cook	-3271
▁Bopara	-3272
▁FH	-3273
▁Phe	-3274
▁Var	-3275
▁Turk	-3276
▁Zahid	-3277
▁Tiwari	-3278
▁LD	-3279
athi	-3280
▁Swan	-3281
▁Dutta	-3282
▁Sahak	-3283
▁Mushta	-3284
▁Abey	-3285
▁Pius	-3286
▁Suri	-3287
▁Sandar	-3288
▁Washeem	-3289
▁Manishimwe	-3290
▁Sandaruwan	-3291
asu	-3292
▁Kib	-3293
▁MWR	-3294
▁Mong	-3295
▁Haque	-3296
▁Kibasu	-3297
ren	-3298
▁SZ	-3299
chuk	-3300
urve	-3301
▁Kall	-3302
▁Surve	-3303
oku	-3304
zak	-3305
▁Mb	-3306
▁We	-3307
▁Wade	-3308
Th	-3309
bs	-3310
▁DJM	-3311
▁Siu	-3312
▁Simi	-3313
Thomas	-3314
▁Bhandari	-3315
odd	-3316
rav	-3317
▁Amla	-3318
▁Milne	-3319
▁Turay	-3320
▁Charles	-3321
umba	-3322
▁BRM	-3323
▁Ost	-3324
▁Ostergaard	-3325
ju	-3326
uin	-3327
▁Whe	-3328
▁Iqra	-3329
▁Sahel	-3330
pley	-3331
▁Nan	-3332
▁Burns	-3333
▁Yanag	-3334
▁Yanagida	-3335
iza	-3336
las	-3337
olo	-3338
raz	-3339
▁PK	-3340
haib	-3341
idin	-3342
▁Zhu	-3343
▁Abidin	-3344
▁Fargana	-3345
imal	-3346
▁Ros	-3347
guire	-3348
▁Abdur	-3349
▁Tribe	-3350
▁Erdene	-3351
▁Maguire	-3352
▁Sarfraz	-3353
▁HL	-3354
▁BAW	-3355
urano	-3356
▁Madus	-3357
▁Sakurano	-3358
vis	-3359
adat	-3360
apsey	-3361
▁Capsey	-3362
▁Suz	-3363
ehman	-3364
▁Miraz	-3365
ramohan	-3366
▁Mehedi	-3367
▁Nkanya	-3368
▁Chandramohan	-3369
▁Do	-3370
▁Sib	-3371
▁Asad	-3372
▁Sibanda	-3373
pha	-3374
▁Kur	-3375
▁Soe	-3376
▁Ura	-3377
▁Isle	-3378
▁Azyan	-3379
▁Jimmy	-3380
▁Sahar	-3381
▁Farhath	-3382
▁TD	-3383
eiro	-3384
ayani	-3385
▁Frank	-3386
kif	-3387
van	-3388
kifle	-3389
▁Gamb	-3390
▁Pieter	-3391
▁Canning	-3392
▁Zubaidi	-3393
▁Zulkifle	-3394
emp	-3395
oko	-3396
▁Don	-3397
uh	-3398
oso	-3399
peda	-3400
uhada	-3401
▁Wood	-3402
▁Dania	-3403
▁Irera	-3404
▁Patwa	-3405
▁Gulsan	-3406
▁Masood	-3407
▁Rosine	-3408
▁Zepeda	-3409
▁Ramdoni	-3410
▁Syuhada	-3411
asha	-3412
▁Bou	-3413
▁Wet	-3414
▁Swann	-3415
▁Nik	-3416
▁Aysha	-3417
▁GW	-3418
▁Bhas	-3419
isht	-3420
▁Ben	-3421
▁Buk	-3422
▁Ele	-3423
aseer	-3424
anyika	-3425
▁Mukasa	-3426
▁Mudassar	-3427
▁Samanyika	-3428
▁Kurup	-3429
▁Maria	-3430
▁Kuk	-3431
▁Ahmer	-3432
▁Nisar	-3433
▁Borren	-3434
▁Chandimal	-3435
▁Satheesan	-3436
ono	-3437
otho	-3438
▁Jar	-3439
rulla	-3440
▁Idambo	-3441
▁Najeeb	-3442
▁Lesotho	-3443
▁Nasrulla	-3444
HM	-3445
sho	-3446
▁1.8:	-3447
▁GWHM	-3448
▁Mali	-3449
ishnoi	-3450
nidhar	-3451
▁Kotze	-3452
nidharka	-3453
▁Bishnoi	-3454
▁Dharnidharka	-3455
aves	-3456
▁Dodd	-3457
rathna	-3458
▁Greaves	-3459
▁Abeyrathna	-3460
▁MW	-3461
avind	-3462
▁Brath	-3463
▁Hassun	-3464
▁Baskaran	-3465
▁Brathwaite	-3466
olia	-3467
▁Galan	-3468
▁Mongolia	-3469
▁Greenwood	-3470
gba	-3471
etmy	-3472
zada	-3473
▁Nge	-3474
▁Adil	-3475
etmyer	-3476
▁Ngegba	-3477
▁Hetmyer	-3478
thy	-3479
amar	-3480
▁Fiaz	-3481
▁Sanj	-3482
ibzada	-3483
verock	-3484
▁Saqlain	-3485
▁Leverock	-3486
▁Sahibzada	-3487
hen	-3488
▁JT	-3489
onda	-3490
ugabo	-3491
▁Khalil	-3492
▁Niyomugabo	-3493
jam	-3494
sya	-3495
apur	-3496
oker	-3497
aball	-3498
▁Coker	-3499
▁Dunbar	-3500
▁Natsya	-3501
▁Arianna	-3502
▁Pradhan	-3503
aballapur	-3504
▁Doddaballapur	-3505
amas	-3506
tomb	-3507
▁Shi	-3508
aliwal	-3509
▁Dhaliwal	-3510
▁Ikramullah	-3511
iji	-3512
▁Et	-3513
▁Ruch	-3514
▁Clarke	-3515
▁Farhan	-3516
▁Bahamas	-3517
▁Croatia	-3518
▁Ruchitha	-3519
▁Aaron	-3520
▁Walsh	-3521
▁Abbott	-3522
▁On	-3523
▁RW	-3524
▁Meng	-3525
▁George	-3526
▁Kaushal	-3527
rid	-3528
erek	-3529
▁Phy	-3530
perek	-3531
winder	-3532
▁Kasperek	-3533
▁FJ	-3534
asim	-3535
hary	-3536
tiaz	-3537
udhary	-3538
▁Imtiaz	-3539
▁OC	-3540
ortje	-3541
▁Moni	-3542
▁Ritu	-3543
▁Jasvi	-3544
▁Wahab	-3545
▁Nortje	-3546
uki	-3547
wais	-3548
ashif	-3549
▁Chig	-3550
▁Vett	-3551
▁Qamar	-3552
▁Bhasin	-3553
▁Kashif	-3554
▁Vettori	-3555
▁Mushtaque	-3556
ag	-3557
gha	-3558
lhe	-3559
▁Cou	-3560
▁Chip	-3561
gotlhe	-3562
▁Mokgotlhe	-3563
▁Kato	-3564
▁Salom	-3565
Eat	-3566
esa	-3567
kho	-3568
ftie	-3569
Eaton	-3570
sonkho	-3571
▁Reddy	-3572
▁Loftie	-3573
▁Kansonkho	-3574
bor	-3575
ery	-3576
gay	-3577
ume	-3578
eshi	-3579
▁Vik	-3580
isser	-3581
▁Tshuma	-3582
▁Visser	-3583
▁RO	-3584
▁Suth	-3585
▁Anand	-3586
▁Chira	-3587
▁Wafiq	-3588
▁Sutherland	-3589
nes	-3590
▁Carey	-3591
▁Sabbir	-3592
boer	-3593
zeen	-3594
▁Dorji	-3595
kenboer	-3596
▁Shanzeen	-3597
▁Molkenboer	-3598
jit	-3599
▁Lal	-3600
▁Seth	-3601
▁Nasum	-3602
▁Chaudhary	-3603
HC	-3604
eya	-3605
zaq	-3606
▁WT	-3607
▁Eri	-3608
▁Her	-3609
▁Reg	-3610
▁SKS	-3611
▁Dube	-3612
▁IMHC	-3613
▁Toube	-3614
▁Kallis	-3615
▁Rabeya	-3616
▁Razzaq	-3617
▁Franklin	-3618
uana	-3619
▁Chop	-3620
▁Muth	-3621
▁Vill	-3622
▁Makri	-3623
▁Caruana	-3624
▁Maharaj	-3625
▁Villani	-3626
wu	-3627
qui	-3628
▁Mure	-3629
▁Toua	-3630
katete	-3631
▁Iloku	-3632
▁Robert	-3633
▁Murekatete	-3634
▁GE	-3635
▁GT	-3636
▁NH	-3637
enti	-3638
ashir	-3639
▁Sayed	-3640
▁Manenti	-3641
▁Pietersen	-3642
Haq	-3643
▁Ais	-3644
▁Hope	-3645
▁Duffy	-3646
▁Chilia	-3647
iai	-3648
▁Bu	-3649
oman	-3650
ovan	-3651
▁Fiji	-3652
▁Tiai	-3653
abe	-3654
▁Nt	-3655
llah	-3656
zaif	-3657
ingra	-3658
▁Tipp	-3659
▁Huzaif	-3660
▁Razzak	-3661
▁Dhingra	-3662
▁Tippoch	-3663
anj	-3664
angman	-3665
▁Nasir	-3666
▁Gaurav	-3667
▁Jenner	-3668
▁Khawar	-3669
▁Brangman	-3670
owe	-3671
oswa	-3672
ameni	-3673
▁Lung	-3674
▁Praj	-3675
ompson	-3676
oswami	-3677
▁McCoy	-3678
▁Tilak	-3679
▁Varma	-3680
▁Goswami	-3681
▁Jasdeep	-3682
▁Thompson	-3683
▁Lungameni	-3684
pel	-3685
ekun	-3686
gten	-3687
umpel	-3688
▁Gugten	-3689
▁Trumpel	-3690
▁Klaassen	-3691
▁Trumpelmann	-3692
RL	-3693
uer	-3694
araw	-3695
erauer	-3696
▁Aayan	-3697
▁Alako	-3698
▁Bartram	-3699
▁Sumerauer	-3700
imba	-3701
yris	-3702
▁Kho	-3703
▁Pok	-3704
▁Sor	-3705
▁Ferr	-3706
▁Styris	-3707
▁Amarpal	-3708
ingiz	-3709
leyne	-3710
▁Noman	-3711
▁Alleyne	-3712
▁Dusingiz	-3713
▁Kaleemullah	-3714
▁Dusingizimana	-3715
ate	-3716
eek	-3717
▁Ht	-3718
aniy	-3719
wand	-3720
▁Ale	-3721
▁Beek	-3722
▁Head	-3723
▁Mais	-3724
▁Ameen	-3725
▁Gooch	-3726
vir	-3727
▁Gha	-3728
inley	-3729
▁Hall	-3730
baatar	-3731
▁Mehran	-3732
▁Senevir	-3733
▁Thinley	-3734
ao	-3735
esnan	-3736
▁Waji	-3737
▁Diana	-3738
▁Wahid	-3739
▁Banner	-3740
▁Aravind	-3741
▁Bresnan	-3742
more	-3743
ullen	-3744
▁Mats	-3745
ank	-3746
hil	-3747
▁Ri	-3748
▁Fan	-3749
eevan	-3750
heema	-3751
▁Mund	-3752
▁Wash	-3753
▁Saber	-3754
▁Cheema	-3755
▁Fanyan	-3756
▁Sundar	-3757
▁Suzuki	-3758
▁Zakhil	-3759
▁Rajeevan	-3760
▁Washington	-3761
hab	-3762
inda	-3763
▁His	-3764
▁Jag	-3765
akwad	-3766
▁Hisham	-3767
▁Gayakwad	-3768
bach	-3769
▁Beh	-3770
▁Rai	-3771
▁Dern	-3772
▁Mata	-3773
▁Maham	-3774
▁Chirag	-3775
▁Dernbach	-3776
▁Mahamalage	-3777
yae	-3778
hepo	-3779
itri	-3780
onjic	-3781
stary	-3782
▁Barn	-3783
▁Phyo	-3784
▁Pyae	-3785
▁Carson	-3786
▁Mostary	-3787
▁Shihepo	-3788
▁Zimonjic	-3789
▁BV	-3790
▁KW	-3791
ikes	-3792
otte	-3793
▁Suf	-3794
▁Baker	-3795
▁Henri	-3796
▁Kotte	-3797
▁Raikes	-3798
▁Razwan	-3799
▁Vayani	-3800
▁Musonda	-3801
▁Kaushalya	-3802
car	-3803
key	-3804
▁OJ	-3805
▁Ta	-3806
▁Naq	-3807
▁SVE	-3808
mince	-3809
▁Pokana	-3810
▁Turkey	-3811
▁Bharathi	-3812
▁Kimmince	-3813
▁Ahmadullah	-3814
bha	-3815
▁CG	-3816
▁Mul	-3817
andeva	-3818
bhajan	-3819
▁Shafi	-3820
▁Wickram	-3821
▁Harbhajan	-3822
hom	-3823
atna	-3824
gess	-3825
▁BMA	-3826
▁JEC	-3827
homme	-3828
ingale	-3829
▁Grand	-3830
▁Night	-3831
▁Piety	-3832
▁Selman	-3833
▁Burgess	-3834
▁Grandhomme	-3835
▁Nightingale	-3836
▁Seneviratna	-3837
lis	-3838
▁IE	-3839
amage	-3840
▁Ameer	-3841
▁Inglis	-3842
KD	-3843
▁Ack	-3844
▁Ars	-3845
abena	-3846
ermann	-3847
▁Jerome	-3848
▁Naseer	-3849
▁Bagabena	-3850
▁Siddiqui	-3851
▁Ackermann	-3852
edd	-3853
ater	-3854
puri	-3855
▁Salt	-3856
▁Davin	-3857
▁Bukhari	-3858
▁Mirpuri	-3859
lane	-3860
▁Koli	-3861
▁Rizan	-3862
▁Surya	-3863
▁Barker	-3864
▁Shamima	-3865
▁Mondlane	-3866
▁FL	-3867
oyle	-3868
▁Dev	-3869
▁Merr	-3870
▁Fitri	-3871
▁Mohan	-3872
▁Jasmat	-3873
▁Solman	-3874
▁Merritt	-3875
▁Kub	-3876
▁Mis	-3877
alkar	-3878
ishek	-3879
dawala	-3880
itanga	-3881
▁Christ	-3882
▁Netrav	-3883
▁Abhishek	-3884
▁Limdawala	-3885
▁Niyitanga	-3886
▁Netravalkar	-3887
vitt	-3888
▁SIP	-3889
anshi	-3890
▁Rajb	-3891
esford	-3892
▁Couana	-3893
▁Damiao	-3894
▁Levitt	-3895
▁Beresford	-3896
▁Rajbanshi	-3897
te	-3898
atha	-3899
kins	-3900
ulia	-3901
apati	-3902
▁Qian	-3903
▁Vira	-3904
▁Julia	-3905
▁Prajapati	-3906
obe	-3907
▁Root	-3908
▁Chohan	-3909
eefa	-3910
▁Jil	-3911
arcia	-3912
▁Etim	-3913
▁Nanda	-3914
▁Qasim	-3915
▁Zeefa	-3916
▁Jilani	-3917
▁Dickson	-3918
▁Shafeeq	-3919
nain	-3920
onib	-3921
ratt	-3922
estus	-3923
ikhel	-3924
▁Rasu	-3925
▁Ateeq	-3926
▁Monib	-3927
▁Festus	-3928
▁Tanzid	-3929
▁Davidson	-3930
▁Kukikhel	-3931
gev	-3932
▁Udana	-3933
▁Varun	-3934
▁EU	-3935
boya	-3936
ukua	-3937
▁Mck	-3938
▁Thap	-3939
kinson	-3940
▁Kejar	-3941
▁Agboya	-3942
▁Mckeon	-3943
▁Parashar	-3944
▁Kejarukua	-3945
AN	-3946
▁RV	-3947
igna	-3948
▁Cor	-3949
arini	-3950
▁0.8:	-3951
▁NPAN	-3952
ignaut	-3953
▁Blignaut	-3954
▁Sakarini	-3955
une	-3956
chin	-3957
very	-3958
▁Ese	-3959
▁Cast	-3960
▁Nand	-3961
▁Udeh	-3962
▁Avery	-3963
▁Donovan	-3964
▁Eseigbe	-3965
▁Sandeep	-3966
hid	-3967
▁Wo	-3968
▁MJG	-3969
▁RJW	-3970
▁Tow	-3971
ridoy	-3972
▁Ruma	-3973
▁Hridoy	-3974
▁Topley	-3975
▁Towhid	-3976
▁Woakes	-3977
tab	-3978
weu	-3979
▁MC	-3980
ongo	-3981
▁Wij	-3982
▁Naid	-3983
▁Shik	-3984
ampied	-3985
▁Saidi	-3986
▁Mosweu	-3987
▁Barnett	-3988
▁Blampied	-3989
▁Shikongo	-3990
▁BD	-3991
ouza	-3992
▁Asm	-3993
▁Asmavia	-3994
▁Greechan	-3995
uny	-3996
baum	-3997
▁Huo	-3998
habha	-3999
irsch	-4000
▁Chib	-4001
▁Fray	-4002
unyela	-4003
▁Sahir	-4004
▁Kirsch	-4005
▁Naqash	-4006
▁Chibhabha	-4007
▁Hamunyela	-4008
▁Kirschbaum	-4009
uni	-4010
▁SY	-4011
hale	-4012
erejo	-4013
▁Prat	-4014
▁Rame	-4015
▁Awais	-4016
▁Berejo	-4017
seg	-4018
enna	-4019
lyon	-4020
▁ADS	-4021
▁MLN	-4022
▁RMA	-4023
▁Son	-4024
ishna	-4025
unday	-4026
▁Hard	-4027
▁Siss	-4028
▁Omary	-4029
▁Sunday	-4030
▁Carlyon	-4031
▁Krishna	-4032
▁Sissako	-4033
cu	-4034
▁Eli	-4035
anand	-4036
▁Puri	-4037
▁Mandh	-4038
▁Ferrary	-4039
fe	-4040
kell	-4041
ossa	-4042
vani	-4043
nehel	-4044
▁Aisya	-4045
▁Cossa	-4046
▁Eleesa	-4047
▁Masaba	-4048
▁Namgay	-4049
▁Panama	-4050
nehelage	-4051
▁Stokell	-4052
irannehelage	-4053
set	-4054
sta	-4055
▁MT	-4056
▁ZE	-4057
▁Card	-4058
setseg	-4059
▁Harris	-4060
▁Jarvis	-4061
▁Coetzer	-4062
▁Venkatar	-4063
bah	-4064
nero	-4065
seya	-4066
Garcia	-4067
Rehman	-4068
sgaard	-4069
▁Dimba	-4070
▁Kesuma	-4071
▁Mangal	-4072
▁Misbah	-4073
▁Utseya	-4074
▁Hornero	-4075
▁Huzaifa	-4076
tae	-4077
▁Daw	-4078
▁Cott	-4079
▁Mtae	-4080
▁Thapa	-4081
▁Walaza	-4082
▁Cottrell	-4083
▁Nandakumar	-4084
akk	-4085
▁TW	-4086
▁Laz	-4087
▁Korea	-4088
jn	-4089
ooq	-4090
inde	-4091
▁3.8:	-4092
▁Farooq	-4093
▁Wickramasekara	-4094
wab	-4095
uria	-4096
▁Walid	-4097
▁Arslan	-4098
rows	-4099
uged	-4100
▁CAK	-4101
borne	-4102
▁Sadar	-4103
ennawab	-4104
ugedera	-4105
▁Burrows	-4106
▁Osborne	-4107
▁Shahree	-4108
▁Maisuria	-4109
▁Kapugedera	-4110
▁Sadarangani	-4111
▁Shahreeennawab	-4112
cal	-4113
▁KV	-4114
▁RB	-4115
urong	-4116
rattana	-4117
▁Chaturong	-4118
▁Xu	-4119
phen	-4120
udia	-4121
▁Saz	-4122
▁Bhudia	-4123
▁Stephen	-4124
gota	-4125
▁Ary	-4126
▁Arif	-4127
▁Aqeel	-4128
▁Ishan	-4129
▁Sunil	-4130
▁Archer	-4131
▁Kishan	-4132
▁Yousuf	-4133
▁Aryaman	-4134
▁Georgota	-4135
▁Moh	-4136
burgh	-4137
ewuta	-4138
▁Daley	-4139
ingwood	-4140
▁Kyewuta	-4141
▁Lazarus	-4142
▁Myburgh	-4143
▁Collingwood	-4144
iwe	-4145
yem	-4146
eill	-4147
ejee	-4148
▁Bod	-4149
inson	-4150
▁Kain	-4151
▁McBr	-4152
iweyem	-4153
▁Thuya	-4154
▁Shamim	-4155
▁Hafejee	-4156
▁Bakiweyem	-4157
ghan	-4158
idya	-4159
lena	-4160
▁Cus	-4161
▁Yee	-4162
▁Basc	-4163
▁Cusack	-4164
▁Jaspal	-4165
▁Vaidya	-4166
lenaghan	-4167
▁McClenaghan	-4168
eno	-4169
isa	-4170
John	-4171
dial	-4172
▁Oti	-4173
ayyer	-4174
ubhai	-4175
▁Agha	-4176
▁Goor	-4177
▁Akhtar	-4178
▁Nayyer	-4179
▁Otieno	-4180
▁Bascome	-4181
▁Goordial	-4182
hl	-4183
▁AT	-4184
▁NC	-4185
hluk	-4186
wayo	-4187
▁Gil	-4188
▁Kir	-4189
▁Mair	-4190
▁Ellis	-4191
▁Manan	-4192
hlukwayo	-4193
▁Phehlukwayo	-4194
ev	-4195
etori	-4196
▁Lili	-4197
▁RMAM	-4198
▁Mirab	-4199
etorius	-4200
▁Khizer	-4201
▁Parmar	-4202
▁Pretorius	-4203
dar	-4204
uchi	-4205
▁McK	-4206
WA	-4207
edo	-4208
ekh	-4209
igi	-4210
▁GF	-4211
ajan	-4212
angi	-4213
ases	-4214
▁HWA	-4215
▁5.8:	-4216
▁Land	-4217
▁Sekh	-4218
igiwal	-4219
ukhune	-4220
▁Chopra	-4221
▁Davies	-4222
▁Razmal	-4223
▁Tshose	-4224
▁Gorases	-4225
▁Mahajan	-4226
▁Landheer	-4227
▁Shigiwal	-4228
▁Sekhukhune	-4229
▁Aarif	-4230
▁Kulume	-4231
zin	-4232
zul	-4233
alle	-4234
adwal	-4235
harack	-4236
▁Dhadwal	-4237
▁Ramharack	-4238
▁Ts	-4239
wiah	-4240
chier	-4241
▁Siow	-4242
▁Tzin	-4243
charam	-4244
umbura	-4245
▁Awiah	-4246
▁Gupta	-4247
▁Param	-4248
▁Hammad	-4249
▁Khadim	-4250
▁Bouchier	-4251
▁Siriward	-4252
▁Kolcharam	-4253
▁Chigumbura	-4254
▁Sirajullah	-4255
ico	-4256
▁Mex	-4257
▁Mub	-4258
rafat	-4259
▁Sari	-4260
▁Bodha	-4261
▁Salau	-4262
▁Selim	-4263
▁Arafat	-4264
▁McGill	-4265
▁Mexico	-4266
▁Parima	-4267
▁Singye	-4268
▁Sanjida	-4269
▁Sariani	-4270
▁LT	-4271
resi	-4272
▁Ara	-4273
ansen	-4274
arajan	-4275
▁Ghauri	-4276
▁Jansen	-4277
▁Mendon	-4278
▁Barresi	-4279
▁Bichard	-4280
ots	-4281
ouw	-4282
▁KO	-4283
▁Om	-4284
ister	-4285
otsobe	-4286
▁Sesay	-4287
▁Lister	-4288
▁Farrell	-4289
▁Natubhai	-4290
▁Tsotsobe	-4291
ff	-4292
meet	-4293
undo	-4294
▁MAA	-4295
avkar	-4296
uther	-4297
▁2.8:	-4298
▁Naim	-4299
▁Para	-4300
▁Parv	-4301
▁Ghani	-4302
▁Naeem	-4303
▁Swart	-4304
jeewani	-4305
▁Ruther	-4306
▁Harmeet	-4307
▁Mundundo	-4308
▁Nagavkar	-4309
▁Rutherford	-4310
▁Sanjeewani	-4311
jaz	-4312
▁IDM	-4313
▁McM	-4314
▁Latin	-4315
▁Samra	-4316
▁Sirah	-4317
▁Krishn	-4318
▁Klaasen	-4319
ant	-4320
iga	-4321
▁Vis	-4322
riani	-4323
uiyan	-4324
▁Dani	-4325
▁Ashok	-4326
▁Sazib	-4327
▁Bhuiyan	-4328
▁Daniels	-4329
▁Mandhyan	-4330
eg	-4331
izi	-4332
▁LB	-4333
▁OE	-4334
▁Mug	-4335
▁ROC	-4336
▁Yam	-4337
▁Nain	-4338
▁Rowe	-4339
▁Weer	-4340
▁Abidi	-4341
▁Dunka	-4342
▁Davizi	-4343
▁Cardoso	-4344
LR	-4345
wen	-4346
▁ND	-4347
▁No	-4348
▁WB	-4349
▁Laeg	-4350
ampaul	-4351
▁Rankin	-4352
▁Sheraz	-4353
▁Rampaul	-4354
▁Laegsgaard	-4355
DLR	-4356
umo	-4357
akan	-4358
kund	-4359
okot	-4360
▁Bre	-4361
▁Oda	-4362
Souza	-4363
ation	-4364
▁4.8:	-4365
▁Erika	-4366
▁PADLR	-4367
▁Gurung	-4368
▁Nation	-4369
▁Ariokot	-4370
▁Sandakan	-4371
isan	-4372
▁KMA	-4373
athil	-4374
▁Chen	-4375
▁Vald	-4376
▁Tambe	-4377
▁Doriga	-4378
athilaka	-4379
▁Gunathilaka	-4380
gher	-4381
▁TLW	-4382
▁Coul	-4383
▁Galla	-4384
▁Coulter	-4385
▁Gallagher	-4386
▁Sr	-4387
▁TI	-4388
Nile	-4389
khel	-4390
▁Rey	-4391
▁Val	-4392
hanga	-4393
▁Gajan	-4394
phaisan	-4395
▁Kananji	-4396
▁Matsolo	-4397
▁Ushanga	-4398
▁Gajanayake	-4399
▁Chatphaisan	-4400
abi	-4401
osa	-4402
▁RT	-4403
amba	-4404
aria	-4405
lett	-4406
▁Frey	-4407
▁Soper	-4408
▁Wangchuk	-4409
had	-4410
▁MF	-4411
mang	-4412
wald	-4413
▁Khe	-4414
▁Mont	-4415
▁Sole	-4416
terpal	-4417
▁Rathod	-4418
▁Kheterpal	-4419
▁PG	-4420
ukus	-4421
▁KDA	-4422
▁Muna	-4423
ukusic	-4424
▁Akbar	-4425
▁Umaima	-4426
▁Vukusic	-4427
▁Munaweera	-4428
ien	-4429
wele	-4430
▁Qwele	-4431
▁Balakrishnan	-4432
▁Qu	-4433
▁Zon	-4434
▁Biza	-4435
▁Mare	-4436
▁McColl	-4437
▁Najjam	-4438
▁Bangura	-4439
▁Dr	-4440
tsho	-4441
unda	-4442
▁Tuba	-4443
▁Gambhir	-4444
▁Jamtsho	-4445
▁Salomao	-4446
afi	-4447
▁OF	-4448
ackay	-4449
appan	-4450
▁Meghna	-4451
DA	-4452
cob	-4453
waj	-4454
▁Luk	-4455
chana	-4456
▁KADA	-4457
▁Sims	-4458
▁Aneesh	-4459
▁Kariko	-4460
▁Lukies	-4461
▁Kanchana	-4462
RK	-4463
▁SG	-4464
azan	-4465
▁Phi	-4466
jnabi	-4467
▁Stoman	-4468
▁Gajnabi	-4469
▁McMullen	-4470
wak	-4471
inze	-4472
shit	-4473
▁Abe	-4474
▁Kom	-4475
▁Hinze	-4476
▁Miyauchi	-4477
▁Ek	-4478
▁TWM	-4479
▁Latham	-4480
3)	-4481
ona	-4482
rul	-4483
▁PF	-4484
▁VD	-4485
gula	-4486
uinn	-4487
▁(3)	-4488
▁Bat	-4489
▁Han	-4490
▁Por	-4491
▁WTS	-4492
shona	-4493
▁Linde	-4494
▁Porter	-4495
▁Stanik	-4496
▁Kyshona	-4497
▁Magagula	-4498
▁Monteiro	-4499
▁Porterfield	-4500
otu	-4501
▁IG	-4502
▁Imal	-4503
▁Wotu	-4504
▁Zuwak	-4505
▁Chahar	-4506
▁Ilenia	-4507
▁Ashokan	-4508
▁Mahboob	-4509
usu	-4510
ifah	-4511
noen	-4512
▁Yun	-4513
addek	-4514
▁Anil	-4515
▁Cope	-4516
▁Htun	-4517
▁Issa	-4518
ummond	-4519
▁Rubel	-4520
▁Vifah	-4521
ungnoen	-4522
▁Yunusu	-4523
▁Mosaddek	-4524
▁Desungnoen	-4525
▁KT	-4526
esar	-4527
▁Cre	-4528
ireng	-4529
▁Jain	-4530
▁Gogev	-4531
▁Hamid	-4532
▁Cremer	-4533
▁Kirton	-4534
▁Rameez	-4535
▁Ntireng	-4536
▁Ntirenganya	-4537
rie	-4538
illo	-4539
▁Ath	-4540
▁Ooko	-4541
ghavan	-4542
▁Desai	-4543
▁Hasnain	-4544
araghavan	-4545
▁Castillo	-4546
▁Vijayaraghavan	-4547
▁NG	-4548
hiya	-4549
eryar	-4550
▁Keen	-4551
▁Gullem	-4552
▁Shaheryar	-4553
yaw	-4554
▁BC	-4555
▁EB	-4556
apak	-4557
chel	-4558
kovic	-4559
▁Kyaw	-4560
▁Bakum	-4561
▁Black	-4562
▁Ansell	-4563
▁Kumara	-4564
▁Martel	-4565
▁Valdez	-4566
▁Rajapak	-4567
▁Blackwell	-4568
▁CD	-4569
▁Ig	-4570
ujin	-4571
▁Jab	-4572
Quinn	-4573
guchi	-4574
▁Jaker	-4575
▁Toguchi	-4576
avak	-4577
kate	-4578
▁Get	-4579
▁WAE	-4580
aleri	-4581
atoga	-4582
▁Hook	-4583
▁Ijaz	-4584
▁Iram	-4585
▁Sabu	-4586
herall	-4587
▁Jonas	-4588
▁Burton	-4589
▁Raghav	-4590
▁Baaleri	-4591
▁Getkate	-4592
▁Waqavak	-4593
▁Wetherall	-4594
▁Waqavakatoga	-4595
ipo	-4596
▁Fuj	-4597
anyal	-4598
ikawa	-4599
arawut	-4600
▁Phiri	-4601
▁Yeshi	-4602
▁Danyal	-4603
▁Maliwan	-4604
▁Panayan	-4605
▁Sarawut	-4606
▁Fujikawa	-4607
HKD	-4608
▁PHKD	-4609
▁Clark	-4610
▁Davey	-4611
bin	-4612
ulk	-4613
▁WJ	-4614
▁YK	-4615
osef	-4616
karsh	-4617
▁Sear	-4618
▁Zhuo	-4619
ulkner	-4620
▁Sabir	-4621
▁Yusuf	-4622
▁Utkarsh	-4623
▁Faulkner	-4624
azon	-4625
hero	-4626
itra	-4627
udas	-4628
ukes	-4629
vell	-4630
▁McA	-4631
ieson	-4632
ururu	-4633
▁Koech	-4634
udasama	-4635
▁Aritra	-4636
▁Beukes	-4637
▁Corazon	-4638
▁Dhururu	-4639
▁Mabhero	-4640
▁Jamieson	-4641
▁Robinson	-4642
▁Chudasama	-4643
gna	-4644
▁JB	-4645
▁WG	-4646
hias	-4647
martt	-4648
▁Azmi	-4649
▁Vish	-4650
anjaya	-4651
▁Smartt	-4652
▁Mathias	-4653
▁Dananjaya	-4654
PM	-4655
aro	-4656
▁CPPM	-4657
▁Foer	-4658
▁Ring	-4659
▁Jawad	-4660
▁Sadun	-4661
▁Ramdin	-4662
▁Unhale	-4663
▁Ringera	-4664
▁Akbarjan	-4665
▁Foerster	-4666
▁Jaswinder	-4667
▁Jawadullah	-4668
▁VS	-4669
Reill	-4670
▁Gond	-4671
Reilly	-4672
▁Talat	-4673
▁Zaheer	-4674
oug	-4675
wet	-4676
▁Sl	-4677
abva	-4678
icol	-4679
inez	-4680
▁Hea	-4681
▁Tye	-4682
ewart	-4683
▁Chak	-4684
▁Doug	-4685
▁Kies	-4686
wetter	-4687
▁Aftab	-4688
▁Barry	-4689
▁Malav	-4690
▁Nicol	-4691
▁Healey	-4692
▁Mackay	-4693
▁Douglas	-4694
▁Shaiman	-4695
▁Stewart	-4696
▁Chakabva	-4697
▁Martinez	-4698
▁Kieswetter	-4699
▁Erdenebaatar	-4700
icz	-4701
chon	-4702
lele	-4703
▁Hek	-4704
rathi	-4705
▁Fenn	-4706
akaran	-4707
▁Jacob	-4708
▁Momin	-4709
▁Suwan	-4710
▁Bulele	-4711
▁Hekure	-4712
▁Shahil	-4713
▁Fennell	-4714
chonrathi	-4715
▁Gondaria	-4716
▁Ravindra	-4717
▁Suwanchonrathi	-4718
eeb	-4719
▁VB	-4720
lerd	-4721
▁EAS	-4722
▁MPP	-4723
Calle	-4724
▁Goto	-4725
▁Raaz	-4726
▁Vuni	-4727
▁Doyle	-4728
▁Regmi	-4729
▁Sears	-4730
▁Shaju	-4731
unglerd	-4732
▁Haseeb	-4733
▁Padunglerd	-4734
Lake	-4735
cova	-4736
icha	-4737
▁ASF	-4738
▁KOK	-4739
▁Nal	-4740
amoto	-4741
umalo	-4742
▁Arua	-4743
▁Fitz	-4744
▁Rani	-4745
gerald	-4746
▁Chetty	-4747
▁Nalisa	-4748
▁Khumalo	-4749
▁Kuncova	-4750
▁Yamamoto	-4751
▁Fitzgerald	-4752
io	-4753
dil	-4754
▁Wul	-4755
umder	-4756
▁Bond	-4757
▁Syah	-4758
▁Vand	-4759
ushdil	-4760
▁Mehta	-4761
▁Ramli	-4762
▁Khushdil	-4763
▁Mazumder	-4764
▁Syahadat	-4765
▁Wulandari	-4766
eet	-4767
▁Zh	-4768
ayer	-4769
ekwe	-4770
▁Tch	-4771
asanna	-4772
▁Adeel	-4773
▁Udekwe	-4774
▁Prasanna	-4775
TJ	-4776
air	-4777
ody	-4778
ting	-4779
▁BTJ	-4780
▁McL	-4781
▁Traj	-4782
akkody	-4783
▁Wheal	-4784
▁Weerakkody	-4785
fie	-4786
uza	-4787
yne	-4788
berg	-4789
pofu	-4790
▁Sav	-4791
▁Vit	-4792
▁Shiv	-4793
ardien	-4794
inkova	-4795
▁Karma	-4796
▁Mpofu	-4797
▁Nanay	-4798
▁Anefie	-4799
▁Shafiul	-4800
▁Behardien	-4801
▁Kominkova	-4802
▁Nanayakkara	-4803
GL	-4804
RLS	-4805
aze	-4806
far	-4807
▁LI	-4808
agye	-4809
▁Abo	-4810
▁Gro	-4811
▁Kit	-4812
▁Met	-4813
▁Finn	-4814
▁Kemp	-4815
▁Luka	-4816
▁Mark	-4817
▁CBRLS	-4818
azanfar	-4819
▁Naidoo	-4820
▁Aboagye	-4821
▁Mendonca	-4822
▁Ghazanfar	-4823
IM	-4824
cia	-4825
vel	-4826
▁Cu	-4827
▁If	-4828
▁Liu	-4829
▁Pol	-4830
inica	-4831
raham	-4832
▁Araa	-4833
▁CNIM	-4834
ielsen	-4835
intyne	-4836
▁Amusa	-4837
▁Morea	-4838
▁Nehra	-4839
▁Simel	-4840
▁Graham	-4841
▁Cuinica	-4842
▁Mengting	-4843
▁Mubashir	-4844
▁Quintyne	-4845
co	-4846
oob	-4847
uck	-4848
▁ZT	-4849
ivan	-4850
▁Cho	-4851
▁6.8:	-4852
▁Kger	-4853
▁10.8:	-4854
▁Mbida	-4855
▁Kgeresi	-4856
▁Simelane	-4857
has	-4858
hot	-4859
unk	-4860
▁Zo	-4861
ayar	-4862
gaab	-4863
paul	-4864
▁Ata	-4865
▁Tul	-4866
athur	-4867
ubman	-4868
▁9.8:	-4869
▁Tait	-4870
unkett	-4871
ushara	-4872
▁Kubra	-4873
gaabile	-4874
▁Jakiel	-4875
▁Mathew	-4876
athurani	-4877
▁Patmore	-4878
▁Savvani	-4879
▁Shubman	-4880
▁Plunkett	-4881
▁Thushara	-4882
▁Legaabile	-4883
▁Chathurani	-4884
de	-4885
den	-4886
▁IC	-4887
imwa	-4888
isla	-4889
mana	-4890
▁JKD	-4891
▁SSM	-4892
eleni	-4893
▁Ashw	-4894
▁Slov	-4895
islaus	-4896
▁Baard	-4897
▁Tuhad	-4898
▁Shimwa	-4899
▁Andreano	-4900
▁Slovenia	-4901
▁Shimwamana	-4902
▁Stanislaus	-4903
▁Tuhadeleni	-4904
bul	-4905
▁PB	-4906
Amin	-4907
thik	-4908
▁MSN	-4909
▁8.8:	-4910
▁Ekani	-4911
▁Karthik	-4912
▁Kitunda	-4913
CA	-4914
▁DV	-4915
amur	-4916
ango	-4917
▁Mosca	-4918
▁Krishnamur	-4919
awar	-4920
▁OGL	-4921
▁Kano	-4922
▁Raut	-4923
▁Shab	-4924
▁Tuff	-4925
▁Haynes	-4926
▁Lakshit	-4927
bla	-4928
iney	-4929
▁Aye	-4930
▁HRA	-4931
▁Danu	-4932
▁Gbla	-4933
▁Khin	-4934
▁Bisht	-4935
▁Paing	-4936
▁Reyes	-4937
▁Ajekun	-4938
▁Farhad	-4939
▁Rainey	-4940
ewo	-4941
wasa	-4942
ewoye	-4943
lovic	-4944
▁Aman	-4945
▁SMSM	-4946
▁Ifill	-4947
▁Kycia	-4948
▁Adewoye	-4949
▁Pavlovic	-4950
▁Senanayake	-4951
opi	-4952
xit	-4953
▁FR	-4954
▁GS	-4955
▁HB	-4956
ivek	-4957
umil	-4958
▁AAP	-4959
▁ABY	-4960
avina	-4961
chila	-4962
lough	-4963
▁7.8:	-4964
nayake	-4965
opiano	-4966
▁Dixit	-4967
▁Sonam	-4968
▁Ullah	-4969
▁Vivek	-4970
▁Vumil	-4971
▁Hardie	-4972
▁Dhavina	-4973
▁Thuchila	-4974
▁Vumiliya	-4975
▁Campopiano	-4976
▁Rathnayake	-4977
taf	-4978
xman	-4979
▁Any	-4980
▁Ker	-4981
▁Roh	-4982
ashik	-4983
toria	-4984
▁Simp	-4985
▁Bharaj	-4986
▁Laxman	-4987
ashikant	-4988
▁Simpson	-4989
▁Viktoria	-4990
▁Shashikant	-4991
rz	-4992
ino	-4993
kum	-4994
▁GG	-4995
ioti	-4996
rzew	-4997
udar	-4998
vish	-4999
▁Gag	-5000
kumta	-5001
▁Peng	-5002
▁Verv	-5003
▁Wath	-5004
▁Marks	-5005
▁Sudar	-5006
istrzew	-5007
itsioti	-5008
vishaya	-5009
▁Anyipo	-5010
▁Suhail	-5011
istrzewicz	-5012
▁Gagandeep	-5013
▁Pengkumta	-5014
▁Mazvishaya	-5015
▁Vervitsioti	-5016
▁Rumistrzewicz	-5017
ron	-5018
▁EF	-5019
▁TB	-5020
atsh	-5021
▁TJG	-5022
atshwa	-5023
tombiz	-5024
▁Karri	-5025
▁Ariani	-5026
▁Ntombiz	-5027
▁Pringle	-5028
ghe	-5029
kam	-5030
▁Ty	-5031
iela	-5032
jige	-5033
ghela	-5034
▁Munir	-5035
▁Tomar	-5036
kamalla	-5037
▁Atiela	-5038
▁Kenjige	-5039
▁Vaghela	-5040
▁Mukkamalla	-5041
gam	-5042
▁Pe	-5043
▁Ank	-5044
hawen	-5045
krami	-5046
▁Ahuja	-5047
▁Murid	-5048
▁Trott	-5049
▁Ekrami	-5050
▁Zubair	-5051
▁Muhawen	-5052
▁Ravindran	-5053
▁Muhawenimana	-5054
ikk	-5055
ven	-5056
▁Mav	-5057
▁Nil	-5058
▁Gull	-5059
▁Lata	-5060
▁Kamal	-5061
▁Dawson	-5062
▁Mondal	-5063
▁Muthui	-5064
▁Obanda	-5065
▁Shorna	-5066
▁Mehboob	-5067
azo	-5068
▁VJ	-5069
Brad	-5070
adha	-5071
ison	-5072
uger	-5073
▁Gab	-5074
▁Mum	-5075
indle	-5076
▁Ange	-5077
▁Dale	-5078
▁Sosa	-5079
utaava	-5080
▁Elias	-5081
▁Gorad	-5082
▁Mbazo	-5083
▁Myott	-5084
▁Shami	-5085
Bradley	-5086
▁Chadha	-5087
▁Kingma	-5088
▁Kruger	-5089
▁Paraam	-5090
▁Sanele	-5091
▁Brindle	-5092
▁Manders	-5093
▁Matautaava	-5094
▁PC	-5095
▁ZM	-5096
▁Saj	-5097
▁Anto	-5098
▁Deol	-5099
▁Akram	-5100
▁Taniy	-5101
▁Ziaur	-5102
▁Magaia	-5103
▁Taniyama	-5104
fiq	-5105
men	-5106
▁JG	-5107
iday	-5108
▁Gar	-5109
andas	-5110
ariya	-5111
estor	-5112
▁Ochi	-5113
▁14.8:	-5114
▁Nestor	-5115
▁Sachin	-5116
▁Ochieng	-5117
▁Halliday	-5118
▁Mohandas	-5119
▁Rameesha	-5120
gal	-5121
unis	-5122
▁Kab	-5123
▁Qad	-5124
▁Senn	-5125
▁Kamea	-5126
▁Lamin	-5127
▁Bargna	-5128
▁Ganesh	-5129
▁Pratik	-5130
▁Younis	-5131
▁Ashwini	-5132
▁Chipare	-5133
▁Rajitha	-5134
iu	-5135
▁AIV	-5136
▁Poo	-5137
▁Alina	-5138
▁Panna	-5139
▁Currie	-5140
▁Benatar	-5141
▁Mumford	-5142
▁Wahidullah	-5143
asi	-5144
jin	-5145
ota	-5146
▁Wel	-5147
amoor	-5148
ovich	-5149
▁Ravu	-5150
ingham	-5151
▁Chuma	-5152
▁Vujin	-5153
amoorthy	-5154
▁Vujinovich	-5155
▁Ramamoorthy	-5156
CM	-5157
zi	-5158
▁Kp	-5159
ascu	-5160
uthu	-5161
▁IDA	-5162
▁LCN	-5163
▁Lok	-5164
arell	-5165
▁Akif	-5166
▁SACA	-5167
▁Kalug	-5168
▁Kpaka	-5169
▁Nikol	-5170
▁Ayasha	-5171
▁Sarwar	-5172
▁Sormus	-5173
▁Zohaib	-5174
▁Rasheed	-5175
▁Damarell	-5176
uyn	-5177
▁Dy	-5178
▁UT	-5179
▁Haw	-5180
▁MBA	-5181
calfe	-5182
▁Lamp	-5183
▁Dylan	-5184
▁Jasat	-5185
▁Myers	-5186
▁McBrine	-5187
▁Roberts	-5188
▁Ashraful	-5189
▁Metcalfe	-5190
▁Lamplough	-5191
enny	-5192
atesw	-5193
▁Song	-5194
erpaul	-5195
▁Denny	-5196
▁Rajan	-5197
▁Baguma	-5198
ateswaran	-5199
▁Chanderpaul	-5200
▁Venkateswaran	-5201
▁Or	-5202
▁Oz	-5203
haal	-5204
onye	-5205
ukwu	-5206
▁Bav	-5207
▁YSD	-5208
hotra	-5209
▁Boas	-5210
▁16.8:	-5211
veratne	-5212
▁Bavuma	-5213
▁Chukwu	-5214
▁Mugabe	-5215
▁Padhaal	-5216
▁Malhotra	-5217
▁Chukwuonye	-5218
▁Seneveratne	-5219
▁Krishnamurthy	-5220
ih	-5221
ky	-5222
baz	-5223
▁GB	-5224
adri	-5225
odos	-5226
vero	-5227
yane	-5228
▁For	-5229
▁Ova	-5230
helen	-5231
illai	-5232
ineza	-5233
ippon	-5234
osefo	-5235
▁Kail	-5236
odosky	-5237
▁Iosefo	-5238
▁Nyiran	-5239
▁Phelen	-5240
▁Pillai	-5241
▁Rippon	-5242
▁Rivero	-5243
▁Madande	-5244
▁Podosky	-5245
▁Shahbaz	-5246
kundineza	-5247
▁Phelenyane	-5248
▁Nyirankundineza	-5249
gge	-5250
ijn	-5251
old	-5252
rat	-5253
isch	-5254
orpe	-5255
▁Lai	-5256
▁NKD	-5257
▁Nay	-5258
ggele	-5259
▁Jele	-5260
▁12.8:	-5261
▁Hashu	-5262
▁Gunase	-5263
▁Thorpe	-5264
ggeleijn	-5265
▁Turkich	-5266
▁Kuggeleijn	-5267
ny	-5268
tur	-5269
ayaz	-5270
▁Fayaz	-5271
▁Wijes	-5272
▁Campbell	-5273
▁Sarandeva	-5274
lie	-5275
kege	-5276
oulou	-5277
▁Hath	-5278
▁Myat	-5279
hirana	-5280
▁Sousa	-5281
▁Vishil	-5282
▁Agarwal	-5283
▁Turkmen	-5284
▁Kanankege	-5285
▁Pathirana	-5286
▁Madanayake	-5287
YA	-5288
▁US	-5289
ilic	-5290
sane	-5291
▁BYA	-5292
▁DAJ	-5293
▁God	-5294
▁Lou	-5295
▁Tas	-5296
alaji	-5297
injar	-5298
ongia	-5299
▁Vash	-5300
otsane	-5301
▁Ritik	-5302
▁Balaji	-5303
▁Vashisht	-5304
▁Chilongia	-5305
▁Hathinjar	-5306
▁Mapotsane	-5307
▁Pooranakaran	-5308
MJ	-5309
aki	-5310
yun	-5311
▁HER	-5312
▁Vla	-5313
ingen	-5314
ullar	-5315
▁Bist	-5316
▁Nono	-5317
▁Quyn	-5318
▁17.8:	-5319
▁Jamil	-5320
▁Sajid	-5321
▁Tyler	-5322
▁Lingen	-5323
▁Mwangi	-5324
▁Valner	-5325
▁Greenway	-5326
▁Es	-5327
omez	-5328
▁Hop	-5329
assol	-5330
▁Lumb	-5331
▁Srey	-5332
lashan	-5333
▁Fazil	-5334
▁Gomez	-5335
▁Meade	-5336
▁Rassol	-5337
▁Steven	-5338
▁McGlashan	-5339
Dav	-5340
cks	-5341
▁Jaf	-5342
Davis	-5343
▁Meiy	-5344
bulgan	-5345
jargal	-5346
▁11.8:	-5347
▁Aiman	-5348
▁Barkat	-5349
▁Stocks	-5350
▁Meiyappan	-5351
▁Erdenebulgan	-5352
ito	-5353
iwa	-5354
▁GR	-5355
Staf	-5356
erak	-5357
xena	-5358
▁Ait	-5359
▁Nao	-5360
▁PBB	-5361
▁Demp	-5362
▁Hogg	-5363
ughtai	-5364
▁Aitken	-5365
▁Saxena	-5366
▁Zeerak	-5367
Stafford	-5368
▁Dempsey	-5369
▁Hawkins	-5370
▁Rishwan	-5371
▁Chughtai	-5372
▁Rajapaksa	-5373
GF	-5374
ins	-5375
▁Iv	-5376
▁Kg	-5377
▁Mod	-5378
▁Taq	-5379
▁Yue	-5380
▁ZGF	-5381
jhana	-5382
monds	-5383
wandu	-5384
▁Foul	-5385
▁Karl	-5386
▁Hairs	-5387
▁Zaker	-5388
▁Gwandu	-5389
▁Maziya	-5390
▁Sufyan	-5391
▁Taqawi	-5392
▁Collins	-5393
▁Foulkes	-5394
▁Keswani	-5395
▁Nielsen	-5396
▁Nilansh	-5397
▁Samjhana	-5398
1:	-5399
KK	-5400
no	-5401
giy	-5402
hov	-5403
.11:	-5404
aren	-5405
hovo	-5406
vast	-5407
▁SAN	-5408
astin	-5409
▁Fari	-5410
▁Hart	-5411
▁Mayp	-5412
▁Noor	-5413
giyani	-5414
▁Amuge	-5415
▁Pooja	-5416
opoulou	-5417
vastava	-5418
▁Godara	-5419
▁McLaren	-5420
▁Mulhovo	-5421
▁Khogiyani	-5422
▁Maypriani	-5423
tha	-5424
iott	-5425
odzi	-5426
ohnm	-5427
▁Leo	-5428
▁MAD	-5429
fiqar	-5430
ikwad	-5431
hammed	-5432
▁Khali	-5433
▁Lavia	-5434
▁Frohnm	-5435
▁Mutomb	-5436
▁Elliott	-5437
▁Gaikwad	-5438
▁Kanchan	-5439
▁Zulfiqar	-5440
▁Frohnmayer	-5441
▁Mutombodzi	-5442
iol	-5443
▁Uw	-5444
ierw	-5445
leau	-5446
▁Hoo	-5447
▁MEK	-5448
abire	-5449
arach	-5450
▁Bess	-5451
▁Main	-5452
▁Sale	-5453
▁Viol	-5454
ukeden	-5455
▁Bierw	-5456
▁Ariunt	-5457
▁Garret	-5458
▁Hooper	-5459
▁Muneeb	-5460
▁Bessala	-5461
ukedeniya	-5462
▁Chipanga	-5463
▁Ingabire	-5464
▁Mohamedi	-5465
▁Violleau	-5466
▁Bierwisch	-5467
▁Ariuntsetseg	-5468
▁Dunukedeniya	-5469
▁Dirannehelage	-5470
mend	-5471
▁Col	-5472
▁Goud	-5473
▁Pedd	-5474
▁Rand	-5475
▁Riya	-5476
▁13.8:	-5477
▁15.8:	-5478
▁Sasha	-5479
▁Belize	-5480
▁Bhatia	-5481
▁Colvin	-5482
▁Tanner	-5483
▁Peddrick	-5484
▁Ravinder	-5485
jb	-5486
ru	-5487
hed	-5488
ool	-5489
wir	-5490
▁Eb	-5491
ille	-5492
mida	-5493
▁Kav	-5494
▁Luis	-5495
▁Khojb	-5496
▁Mamba	-5497
▁Rawal	-5498
▁Tanwir	-5499
▁Hermida	-5500
▁Khojbariya	-5501
▁Venkataram	-5502
▁BE	-5503
veld	-5504
▁Cai	-5505
▁JAN	-5506
▁JDF	-5507
ersay	-5508
▁Baron	-5509
▁Ngono	-5510
▁Anamul	-5511
▁Navicha	-5512
▁Vandersay	-5513
▁In	-5514
bina	-5515
esch	-5516
oors	-5517
zaib	-5518
▁Roa	-5519
▁Bais	-5520
▁Nath	-5521
▁Wald	-5522
eschate	-5523
▁Milind	-5524
▁Spoors	-5525
▁Arjunan	-5526
▁Dalbina	-5527
▁Symonds	-5528
▁Waldron	-5529
▁Shahzaib	-5530
▁Christian	-5531
▁Doeschate	-5532
ami	-5533
iso	-5534
▁FG	-5535
ouge	-5536
ubbs	-5537
umoto	-5538
▁Anas	-5539
▁Same	-5540
usenge	-5541
▁Gouge	-5542
▁Maposa	-5543
▁Nonoha	-5544
▁Slater	-5545
▁Stubbs	-5546
▁Yasumoto	-5547
uv	-5548
erm	-5549
hum	-5550
▁Agu	-5551
▁Isa	-5552
addin	-5553
cimen	-5554
▁Shri	-5555
charya	-5556
humuza	-5557
▁Prast	-5558
▁Ryder	-5559
cimento	-5560
illeira	-5561
▁Haddin	-5562
▁Kainat	-5563
▁Salekar	-5564
▁Muhumuza	-5565
▁Aguilleira	-5566
▁Nascimento	-5567
▁Karmacharya	-5568
▁Shrivastava	-5569
aff	-5570
uis	-5571
naff	-5572
over	-5573
ungi	-5574
▁Dab	-5575
▁Hira	-5576
▁Agatha	-5577
▁Ahnaff	-5578
▁Browne	-5579
▁Glover	-5580
▁Murungi	-5581
Par	-5582
ayu	-5583
cas	-5584
eeg	-5585
hur	-5586
ufa	-5587
▁TR	-5588
ques	-5589
hanka	-5590
wella	-5591
▁Bill	-5592
▁Fort	-5593
▁Leko	-5594
▁Mees	-5595
Parker	-5596
▁Lascu	-5597
▁Lucas	-5598
▁Syeda	-5599
▁Talha	-5600
▁Marufa	-5601
▁Rahayu	-5602
▁Fortuin	-5603
▁Shafeeg	-5604
▁Henriques	-5605
▁Stanikzai	-5606
▁Madushanka	-5607
MMJ	-5608
▁Ave	-5609
▁Gum	-5610
▁Ota	-5611
▁RDB	-5612
▁MTMMJ	-5613
▁Gibson	-5614
▁Kubwimana	-5615
gy	-5616
adh	-5617
▁NY	-5618
Lean	-5619
gydy	-5620
▁TAM	-5621
uranga	-5622
▁Sunny	-5623
▁Zhang	-5624
gydyala	-5625
▁Kodali	-5626
▁McLean	-5627
▁Taranjit	-5628
▁Maduranga	-5629
▁Pagydyala	-5630
▁Ravinderpal	-5631
▁Siriwardana	-5632
orl	-5633
gase	-5634
igot	-5635
riel	-5636
uyne	-5637
▁Dco	-5638
▁Diz	-5639
▁Med	-5640
alley	-5641
estha	-5642
utswi	-5643
▁MADD	-5644
▁Pont	-5645
anandi	-5646
igotla	-5647
▁18.8:	-5648
▁Beams	-5649
▁Khabo	-5650
▁Nurse	-5651
▁Ruyne	-5652
▁Dcosta	-5653
▁Dizija	-5654
▁Mukesh	-5655
▁Shariz	-5656
▁Gabriel	-5657
▁Mangela	-5658
▁Moutswi	-5659
▁Overton	-5660
▁Ponting	-5661
▁Rameshan	-5662
▁Shangase	-5663
▁Shrestha	-5664
▁Nadigotla	-5665
▁Ramanandi	-5666
▁Ruynekova	-5667
▁Surangika	-5668
yab	-5669
Derm	-5670
▁Pus	-5671
▁TMA	-5672
iying	-5673
▁Jora	-5674
▁Loic	-5675
▁Mail	-5676
▁Than	-5677
ikaith	-5678
ramjit	-5679
▁Koral	-5680
▁Sohel	-5681
▁Welig	-5682
Dermott	-5683
▁Burhan	-5684
▁Foster	-5685
▁Leslie	-5686
▁Huiying	-5687
▁Amarmend	-5688
ikaithasan	-5689
▁McDermott	-5690
▁Vikramjit	-5691
▁Koralalage	-5692
▁Weligamage	-5693
▁Thanikaithasan	-5694
Sol	-5695
uti	-5696
iyan	-5697
qeem	-5698
uzhi	-5699
▁SSJ	-5700
Soler	-5701
imeri	-5702
▁Luta	-5703
▁Hatch	-5704
▁Yuzhi	-5705
▁Brooks	-5706
▁Muqeem	-5707
▁Wetoto	-5708
▁Jackson	-5709
▁Lutaaya	-5710
▁Sufiyan	-5711
▁Hatchman	-5712
Dr	-5713
zgi	-5714
emal	-5715
▁Aka	-5716
▁CRD	-5717
▁Let	-5718
risna	-5719
▁Ezgi	-5720
▁Thar	-5721
▁Zhou	-5722
chukwu	-5723
▁Allan	-5724
▁Hemal	-5725
▁Kilic	-5726
▁Litch	-5727
▁Nayab	-5728
▁Phang	-5729
▁Shahi	-5730
▁Winda	-5731
▁Fariha	-5732
▁Mulder	-5733
▁Rahmat	-5734
▁Trisna	-5735
Drummond	-5736
▁Stovell	-5737
▁Phangiso	-5738
▁Prastini	-5739
▁Akachukwu	-5740
▁Dickwella	-5741
▁Hemalatha	-5742
▁Litchfield	-5743
▁Rahmatullah	-5744
AKK	-5745
RKB	-5746
din	-5747
alil	-5748
iyal	-5749
onen	-5750
▁Qan	-5751
▁Keny	-5752
▁Vara	-5753
hangwe	-5754
▁HMRKB	-5755
▁Hopes	-5756
▁Jalil	-5757
▁Smuts	-5758
▁Uddin	-5759
▁Uwera	-5760
▁WGAKK	-5761
▁Herath	-5762
▁Qanita	-5763
▁Shumba	-5764
▁Rodrigo	-5765
▁Salonen	-5766
▁Varaiya	-5767
▁Mushangwe	-5768
▁Kulasuriya	-5769
rus	-5770
hawa	-5771
osie	-5772
oyte	-5773
▁Ten	-5774
▁Tun	-5775
▁Yon	-5776
adwaj	-5777
azrul	-5778
caren	-5779
▁Amal	-5780
uddika	-5781
▁Coyte	-5782
▁Idrus	-5783
▁Kgosie	-5784
▁Shivam	-5785
carenhas	-5786
▁Simango	-5787
▁Syazrul	-5788
▁Dalgaard	-5789
▁Bharadwaj	-5790
▁Samuddika	-5791
▁Kgosiemang	-5792
▁Mascarenhas	-5793
gey	-5794
▁EM	-5795
bhar	-5796
ibar	-5797
iler	-5798
▁Pen	-5799
▁Rib	-5800
▁Wei	-5801
acken	-5802
bhare	-5803
▁Ther	-5804
▁Filer	-5805
▁Dewald	-5806
▁Dilara	-5807
▁Rabgey	-5808
▁Tenjin	-5809
▁Tuffin	-5810
▁Bracken	-5811
▁Ribeiro	-5812
▁Billings	-5813
▁Kumbhare	-5814
Mah	-5815
gat	-5816
ifo	-5817
laj	-5818
▁Jo	-5819
▁OD	-5820
emin	-5821
tanu	-5822
veri	-5823
▁NMP	-5824
▁Sis	-5825
Mahon	-5826
dylaj	-5827
eyeon	-5828
▁1.9:	-5829
▁Hald	-5830
▁Sola	-5831
eminck	-5832
▁Ihsan	-5833
wandewi	-5834
▁Kalasi	-5835
▁Kaveri	-5836
▁Nannes	-5837
▁Pargat	-5838
▁Sisifo	-5839
▁Zahiri	-5840
▁Avdylaj	-5841
▁Daeyeon	-5842
▁Ebrahim	-5843
▁MacMahon	-5844
▁Shantanu	-5845
▁Suwandewi	-5846
▁Vlaeminck	-5847
▁Sey	-5848
▁Tim	-5849
akley	-5850
umoun	-5851
▁Kand	-5852
▁Rafi	-5853
chelles	-5854
▁Ranedo	-5855
▁Weakley	-5856
▁Seychelles	-5857
▁Ranedoumoun	-5858
ubb	-5859
wer	-5860
▁PV	-5861
Wick	-5862
weed	-5863
▁Aug	-5864
▁Day	-5865
▁SMK	-5866
avale	-5867
thage	-5868
▁Hubb	-5869
imuthu	-5870
▁Anwer	-5871
▁Johns	-5872
▁Masud	-5873
▁Akhter	-5874
▁Jaweed	-5875
▁Sadran	-5876
▁Sajjad	-5877
Wickberg	-5878
▁Hubbard	-5879
▁Rossouw	-5880
▁Ataullah	-5881
▁Tiripano	-5882
▁Kalimuthu	-5883
▁Waththage	-5884
IA	-5885
yr	-5886
hag	-5887
oza	-5888
▁El	-5889
▁Sn	-5890
reja	-5891
yait	-5892
▁WIA	-5893
▁Uswa	-5894
▁Yang	-5895
▁Sealy	-5896
▁Anyait	-5897
▁Deshan	-5898
▁Feroza	-5899
▁Lokuge	-5900
▁Mujeeb	-5901
▁Atkinson	-5902
▁Polimeri	-5903
GT	-5904
iva	-5905
mau	-5906
▁En	-5907
lake	-5908
wamy	-5909
yagi	-5910
▁Ket	-5911
▁Kuy	-5912
▁PSR	-5913
akuru	-5914
cheta	-5915
iyage	-5916
soalo	-5917
▁MPGT	-5918
▁Park	-5919
▁Gurus	-5920
▁James	-5921
▁Semau	-5922
▁Tyagi	-5923
▁Mavuta	-5924
▁Bartlett	-5925
▁Ketiyage	-5926
▁Lalcheta	-5927
▁Letsoalo	-5928
▁Srandeva	-5929
▁Stanlake	-5930
▁Gurusinghe	-5931
cky	-5932
oyi	-5933
uli	-5934
ooda	-5935
▁Mei	-5936
▁NKF	-5937
eshta	-5938
ikoyi	-5939
▁Gumy	-5940
▁Pras	-5941
▁Rada	-5942
▁Ankad	-5943
▁Argyr	-5944
▁Blake	-5945
▁Hooda	-5946
▁Huang	-5947
▁Lucky	-5948
▁Saleem	-5949
▁Onikoyi	-5950
▁Shreshta	-5951
▁Gumyusenge	-5952
▁Argyropoulou	-5953
imo	-5954
eown	-5955
evic	-5956
faga	-5957
asova	-5958
eddon	-5959
ukunt	-5960
ijevic	-5961
▁Tashi	-5962
anandan	-5963
ukuntla	-5964
▁Gambia	-5965
▁Lefaga	-5966
▁Seddon	-5967
▁McGeown	-5968
▁Matijevic	-5969
▁Kanukuntla	-5970
▁Vivekanandan	-5971
eli	-5972
ipe	-5973
riy	-5974
ute	-5975
▁HS	-5976
jira	-5977
▁DAL	-5978
▁OEG	-5979
bayar	-5980
chane	-5981
▁Juma	-5982
artman	-5983
echnie	-5984
▁Aamer	-5985
▁Avesh	-5986
▁Gayan	-5987
▁Mokha	-5988
▁Nurul	-5989
ingaipe	-5990
▁Aleena	-5991
▁Ronchi	-5992
▁Tchale	-5993
▁Delawar	-5994
▁Wanjira	-5995
▁Baartman	-5996
▁Chingaipe	-5997
▁McKechnie	-5998
▁Paramitha	-5999
▁Mokhachane	-6000
su	-6001
oyn	-6002
uho	-6003
hant	-6004
lagg	-6005
onga	-6006
orth	-6007
▁BDH	-6008
▁Haq	-6009
uhoza	-6010
veldt	-6011
▁Berg	-6012
▁Poyn	-6013
▁Rica	-6014
ansala	-6015
sworth	-6016
▁Blagg	-6017
▁Costa	-6018
▁Milad	-6019
iyalwar	-6020
▁Momend	-6021
▁Poynter	-6022
▁Stevens	-6023
▁Ainsworth	-6024
▁Nisansala	-6025
▁Trajkovic	-6026
▁Niyomuhoza	-6027
▁Periyalwar	-6028
▁PP	-6029
uike	-6030
▁Abu	-6031
▁Peat	-6032
▁Zaki	-6033
▁Doram	-6034
▁Price	-6035
▁Rohid	-6036
▁Ruike	-6037
itharan	-6038
▁Mabila	-6039
▁Rahane	-6040
▁Tharanga	-6041
▁Peatfield	-6042
ilj	-6043
owie	-6044
shaw	-6045
▁ACF	-6046
▁EJB	-6047
▁Kob	-6048
▁Bano	-6049
▁Bras	-6050
▁Tick	-6051
▁Vilj	-6052
hanage	-6053
▁Abuga	-6054
▁Dayal	-6055
▁Rafiq	-6056
▁Saran	-6057
▁Crowie	-6058
▁Kobeli	-6059
▁Meghla	-6060
▁Rizpha	-6061
▁Forshaw	-6062
▁Tickner	-6063
▁Viljoen	-6064
▁Muhammed	-6065
mt	-6066
diq	-6067
iah	-6068
ido	-6069
lep	-6070
olu	-6071
opp	-6072
▁JF	-6073
enac	-6074
hemt	-6075
▁Sou	-6076
addiq	-6077
letti	-6078
▁Abul	-6079
▁Kopp	-6080
▁Said	-6081
ekunle	-6082
▁Abhij	-6083
▁Guido	-6084
▁Rehemt	-6085
▁Koppolu	-6086
▁Prashar	-6087
▁Sarenac	-6088
▁Adekunle	-6089
▁Musaddiq	-6090
▁Angeletti	-6091
▁Rehemtulla	-6092
ost	-6093
ardy	-6094
atap	-6095
erre	-6096
inul	-6097
iras	-6098
ushp	-6099
abova	-6100
▁Khur	-6101
lepati	-6102
pratap	-6103
▁Hider	-6104
▁Pushp	-6105
▁Samad	-6106
▁Yardy	-6107
▁Bashir	-6108
▁Pierre	-6109
▁Redkar	-6110
▁Mataora	-6111
▁Abhijeet	-6112
▁Galabova	-6113
▁Johnston	-6114
▁Mulepati	-6115
▁Gurpratap	-6116
gir	-6117
nak	-6118
ateh	-6119
carr	-6120
ziva	-6121
nakul	-6122
▁Grim	-6123
▁Kowa	-6124
▁Tred	-6125
▁Abuba	-6126
▁Mehmi	-6127
▁Yasar	-6128
▁Kuyateh	-6129
▁Madziva	-6130
▁Grimmond	-6131
▁Tredwell	-6132
▁Warnakul	-6133
▁Abubacarr	-6134
▁Warnakulasuriya	-6135
▁CI	-6136
etic	-6137
idom	-6138
rael	-6139
▁Dia	-6140
▁Ito	-6141
▁MFD	-6142
▁NMS	-6143
ordon	-6144
yonga	-6145
▁Asia	-6146
▁Duck	-6147
ikumar	-6148
▁Douma	-6149
▁Gordon	-6150
▁Israel	-6151
▁Ivetic	-6152
▁Joshua	-6153
▁Duckett	-6154
▁Manidom	-6155
▁Munyonga	-6156
thu	-6157
▁NE	-6158
▁OA	-6159
goda	-6160
ibul	-6161
▁Fub	-6162
▁Jit	-6163
▁Job	-6164
▁STR	-6165
▁Tum	-6166
anish	-6167
awatt	-6168
essik	-6169
▁Dema	-6170
▁IECM	-6171
▁Tiss	-6172
▁Wong	-6173
undell	-6174
ickrama	-6175
▁Austin	-6176
▁Fubler	-6177
▁Vessik	-6178
▁Dianish	-6179
▁Ghalley	-6180
▁Tissier	-6181
gne	-6182
▁BG	-6183
arti	-6184
oana	-6185
▁Best	-6186
aswamy	-6187
untsho	-6188
▁19.8:	-6189
▁Aarti	-6190
▁Bevin	-6191
▁Mutua	-6192
▁Naser	-6193
▁Natal	-6194
▁Priya	-6195
▁Ragne	-6196
▁Baluch	-6197
▁Banton	-6198
▁Hallik	-6199
▁Regina	-6200
▁Galanis	-6201
▁Phuntsho	-6202
▁Pushparajan	-6203
bra	-6204
aroo	-6205
▁Sin	-6206
abela	-6207
agoda	-6208
aveen	-6209
ekiwa	-6210
endra	-6211
▁Maph	-6212
▁Moiz	-6213
brache	-6214
▁Niazi	-6215
iqullah	-6216
▁Nyabela	-6217
▁Praveen	-6218
▁Medagoda	-6219
▁Musekiwa	-6220
▁Ferbrache	-6221
▁Amarjargal	-6222
▁Ashiqullah	-6223
▁Venkataraman	-6224
qa	-6225
anu	-6226
▁GI	-6227
▁Oa	-6228
▁WU	-6229
ises	-6230
rant	-6231
▁Aps	-6232
▁Gim	-6233
▁MPM	-6234
▁Nih	-6235
▁PWA	-6236
▁Path	-6237
▁Rock	-6238
aniyah	-6239
essane	-6240
harsha	-6241
riyalo	-6242
▁Begam	-6243
▁Carse	-6244
▁Chowd	-6245
▁Najwa	-6246
▁Ndanu	-6247
▁Zaroo	-6248
▁Apsari	-6249
▁Karuna	-6250
▁Moises	-6251
▁Nihute	-6252
▁Farrant	-6253
▁Saniyah	-6254
▁Muriyalo	-6255
▁Winfield	-6256
▁Canessane	-6257
▁Ravikumar	-6258
▁Sriharsha	-6259
▁BP	-6260
iken	-6261
▁Rop	-6262
▁Tik	-6263
apaka	-6264
ayach	-6265
urent	-6266
▁Good	-6267
▁Nunt	-6268
▁Umer	-6269
▁Abega	-6270
▁Galia	-6271
▁Osama	-6272
▁Mayank	-6273
▁Roposo	-6274
▁Shanti	-6275
▁Tikolo	-6276
▁Adapaka	-6277
▁Shurent	-6278
▁Amandeep	-6279
▁Nagayach	-6280
▁Sulaiman	-6281
▁Fernandes	-6282
▁Nuntarach	-6283
▁Shurentsetseg	-6284
gd	-6285
▁Md	-6286
▁Tl	-6287
essy	-6288
pras	-6289
usha	-6290
▁Jem	-6291
ingme	-6292
▁Eman	-6293
▁Ford	-6294
▁Henn	-6295
▁Lang	-6296
▁Lieng	-6297
▁Tlali	-6298
prasert	-6299
ingmeier	-6300
▁Jemison	-6301
▁Parveen	-6302
▁Hennessy	-6303
▁Langford	-6304
▁Veringmeier	-6305
▁Liengprasert	-6306
DT	-6307
kw	-6308
yk	-6309
alkw	-6310
aric	-6311
leye	-6312
waqa	-6313
▁Krv	-6314
▁Ola	-6315
iaqat	-6316
immer	-6317
okoel	-6318
▁Aina	-6319
▁Gazi	-6320
▁SKDT	-6321
▁Scho	-6322
▁Tasn	-6323
alkwyk	-6324
german	-6325
▁Braat	-6326
▁Sohag	-6327
▁Gokoel	-6328
▁Liaqat	-6329
▁Rahimi	-6330
▁Theron	-6331
▁Krvaric	-6332
▁Olaleye	-6333
▁Plimmer	-6334
▁Ungerman	-6335
▁Vuniwaqa	-6336
▁Madusanka	-6337
▁Schalkwyk	-6338
▁Stephenson	-6339
dj	-6340
bre	-6341
cht	-6342
zei	-6343
▁AW	-6344
▁XC	-6345
afai	-6346
akal	-6347
djen	-6348
gann	-6349
iong	-6350
uley	-6351
▁Jev	-6352
elbre	-6353
khiya	-6354
▁Lynn	-6355
▁Rajp	-6356
▁Chikk	-6357
▁Lafai	-6358
▁Mesar	-6359
▁Rehan	-6360
▁Sandy	-6361
▁Saqib	-6362
▁Thoon	-6363
annaiah	-6364
▁Balala	-6365
▁Dhakal	-6366
▁Haiong	-6367
▁Turner	-6368
djenovic	-6369
elbrecht	-6370
▁McAuley	-6371
▁Athavale	-6372
▁Soukhiya	-6373
▁Mesarovic	-6374
▁Engelbrecht	-6375
▁Jevdjenovic	-6376
▁Chikkannaiah	-6377
Eje	-6378
jwa	-6379
pie	-6380
Ejegi	-6381
ender	-6382
▁Mene	-6383
lespie	-6384
▁Bajwa	-6385
▁Qadir	-6386
▁Akhigbe	-6387
▁Devender	-6388
▁Gillespie	-6389
▁ZB	-6390
aksh	-6391
head	-6392
ijey	-6393
iyed	-6394
▁Bir	-6395
▁CMA	-6396
jamin	-6397
shuis	-6398
▁Dwar	-6399
▁Jams	-6400
▁Omid	-6401
abitsa	-6402
▁Asika	-6403
▁Bijey	-6404
▁Fawad	-6405
▁Kanoh	-6406
▁Rasik	-6407
▁Shill	-6408
akshala	-6409
▁Horley	-6410
▁Saiyed	-6411
▁Jamshed	-6412
▁Benjamin	-6413
▁Bijeyata	-6414
▁Jaspreet	-6415
▁Sadamali	-6416
▁Bhakshala	-6417
▁Dwarshuis	-6418
▁Ramabitsa	-6419
▁Shillington	-6420
Sh	-6421
don	-6422
eva	-6423
Shak	-6424
anis	-6425
▁Uwa	-6426
isani	-6427
kania	-6428
▁Roma	-6429
anisau	-6430
deesha	-6431
mahoro	-6432
▁Maeva	-6433
▁Tanba	-6434
Shakoor	-6435
▁Sarwan	-6436
▁Ismaila	-6437
▁Barkania	-6438
▁Batisani	-6439
▁Rahimzei	-6440
▁Jagdeesha	-6441
▁Rafiullah	-6442
▁Uwamahoro	-6443
▁Waqanisau	-6444
▁Oo	-6445
▁RH	-6446
burg	-6447
ikar	-6448
iley	-6449
onke	-6450
▁Jes	-6451
▁MKh	-6452
▁Taf	-6453
ankar	-6454
iaoto	-6455
hanaze	-6456
▁Gibbs	-6457
▁Kerge	-6458
▁Mural	-6459
▁Bailey	-6460
▁Kavana	-6461
▁Khiaoto	-6462
▁Athanaze	-6463
▁Patankar	-6464
▁MKhatshwa	-6465
▁Ntombizonke	-6466
▁Muralitharan	-6467
▁ZP	-6468
eace	-6469
kiua	-6470
wanz	-6471
▁Aga	-6472
▁Bon	-6473
▁Sth	-6474
alala	-6475
▁Fiza	-6476
▁HDRL	-6477
▁Heer	-6478
▁Thir	-6479
▁Wall	-6480
alekar	-6481
imanne	-6482
▁Gwanz	-6483
▁Harry	-6484
▁Ikiua	-6485
▁Peace	-6486
▁Bonner	-6487
▁Malino	-6488
▁Zuhaib	-6489
apaththu	-6490
▁Boucher	-6491
▁Heerden	-6492
▁Gwanzura	-6493
▁Jahangir	-6494
▁Shabalala	-6495
▁Sthalekar	-6496
▁Thirimanne	-6497
▁Athapaththu	-6498
Ur	-6499
wuz	-6500
▁NO	-6501
▁Um	-6502
bser	-6503
ekar	-6504
math	-6505
tagh	-6506
▁HML	-6507
▁Pas	-6508
auhan	-6509
isoro	-6510
retha	-6511
ulike	-6512
▁Daud	-6513
▁Hiri	-6514
▁Jojo	-6515
▁Kana	-6516
▁Kang	-6517
▁Kush	-6518
▁Pess	-6519
▁Vaia	-6520
quadri	-6521
▁Onwuz	-6522
▁Anique	-6523
▁Shafiq	-6524
▁Chauhan	-6525
▁Chisoro	-6526
▁Ishmath	-6527
▁Loubser	-6528
▁Mukhiya	-6529
▁Murtagh	-6530
▁Pessima	-6531
▁Kushretha	-6532
▁Madushani	-6533
▁Onwuzulike	-6534
▁Abdulquadri	-6535
lv	-6536
MDY	-6537
gle	-6538
▁OB	-6539
ahya	-6540
hell	-6541
lvia	-6542
oluk	-6543
▁Aji	-6544
▁Bow	-6545
▁JAM	-6546
▁Kad	-6547
▁EMDY	-6548
▁Usab	-6549
▁Yous	-6550
umbami	-6551
▁Alumo	-6552
▁Aroob	-6553
▁Kadyan	-6554
▁Maritz	-6555
▁Sylvia	-6556
▁Ajiambo	-6557
▁Mutumbami	-6558
▁Usabyimana	-6559
▁Siriwardena	-6560
bot	-6561
rue	-6562
alou	-6563
▁Nid	-6564
▁Niv	-6565
olass	-6566
▁Rung	-6567
▁Side	-6568
bottom	-6569
rueang	-6570
▁Drake	-6571
▁Murad	-6572
▁Suman	-6573
amanuru	-6574
▁Amoluk	-6575
olasseri	-6576
▁Cholasseri	-6577
▁Nidamanuru	-6578
▁Rungrueang	-6579
▁Sidebottom	-6580
ema	-6581
erck	-6582
etty	-6583
chado	-6584
khzul	-6585
▁Kalt	-6586
▁Oala	-6587
▁STRA	-6588
initha	-6589
▁Akank	-6590
▁Choud	-6591
▁Derck	-6592
▁Metty	-6593
▁Wasif	-6594
▁Limema	-6595
▁Parvez	-6596
▁Enkhzul	-6597
▁Kankhel	-6598
▁Machado	-6599
▁Brassell	-6600
▁Dercksen	-6601
▁Akankwasa	-6602
qi	-6603
tu	-6604
afie	-6605
apau	-6606
arai	-6607
chal	-6608
htar	-6609
isse	-6610
undi	-6611
▁AGS	-6612
atley	-6613
ensen	-6614
ikova	-6615
inger	-6616
▁BMAJ	-6617
▁Dhan	-6618
▁Gous	-6619
▁Obed	-6620
▁Pany	-6621
angara	-6622
umaran	-6623
▁Kundi	-6624
▁Naran	-6625
▁Santo	-6626
▁Tesar	-6627
▁Anafie	-6628
▁Henery	-6629
▁Khaliq	-6630
▁Shantu	-6631
▁Cameron	-6632
▁Mukhtar	-6633
▁Panchal	-6634
▁Pollock	-6635
▁Jaskaran	-6636
▁Kaltapau	-6637
▁Sorensen	-6638
▁Wheatley	-6639
▁Panyangara	-6640
▁Tesarikova	-6641
▁Naranbaatar	-6642
FG	-6643
NFG	-6644
oye	-6645
vva	-6646
yle	-6647
▁Ao	-6648
▁VE	-6649
embo	-6650
irim	-6651
ocks	-6652
vain	-6653
▁Kiz	-6654
▁PRP	-6655
ereza	-6656
itton	-6657
rocks	-6658
▁Behr	-6659
▁Pyle	-6660
▁Well	-6661
▁Aoina	-6662
▁GSNFG	-6663
▁Movva	-6664
▁Tembo	-6665
▁Vince	-6666
ildirim	-6667
▁Boisse	-6668
▁Jasani	-6669
▁Kizito	-6670
▁Tereza	-6671
▁Britton	-6672
▁Kandpal	-6673
▁Horrocks	-6674
▁Salomone	-6675
▁Boissevain	-6676
Car	-6677
maz	-6678
ves	-6679
▁YH	-6680
Carr	-6681
agno	-6682
sson	-6683
▁BAD	-6684
▁Dah	-6685
▁Mbo	-6686
▁Web	-6687
ishka	-6688
oshan	-6689
yabhai	-6690
▁Bhatt	-6691
▁Dubey	-6692
▁Yahya	-6693
Carrera	-6694
▁Pratis	-6695
▁Stagno	-6696
▁Avishka	-6697
▁Iroshan	-6698
▁Sidhant	-6699
▁Webster	-6700
▁Christie	-6701
▁Karlsson	-6702
▁Randhawa	-6703
▁Dahyabhai	-6704
nam	-6705
zan	-6706
▁PL	-6707
▁TE	-6708
appa	-6709
ohia	-6710
turk	-6711
▁Anj	-6712
linto	-6713
tiari	-6714
▁Diss	-6715
▁Hans	-6716
▁Aiken	-6717
▁Beuge	-6718
▁Lohia	-6719
▁Ozturk	-6720
▁Rameen	-6721
▁Samaraw	-6722
▁Sameera	-6723
▁Murtiari	-6724
▁Aikenhead	-6725
▁Dissanayake	-6726
▁Samarawickrama	-6727
cha	-6728
▁BS	-6729
ogle	-6730
were	-6731
▁Bet	-6732
▁Tar	-6733
aster	-6734
sanan	-6735
▁Atan	-6736
▁Emon	-6737
▁Will	-6738
▁Yves	-6739
▁Bowes	-6740
▁Cyusa	-6741
▁Haoye	-6742
▁Jitin	-6743
▁Visee	-6744
enewald	-6745
▁Bhogle	-6746
▁Farzan	-6747
▁Machan	-6748
▁Bethell	-6749
▁Kabwere	-6750
▁Groenewald	-6751
▁Sudarsanan	-6752
asg	-6753
huk	-6754
▁Je	-6755
▁YP	-6756
amwe	-6757
▁Hil	-6758
asgow	-6759
athan	-6760
▁Alta	-6761
▁Nary	-6762
christ	-6763
▁Maira	-6764
▁Pavel	-6765
▁Peter	-6766
▁Raack	-6767
hukamwe	-6768
▁Jagrat	-6769
▁Jegann	-6770
▁Sharan	-6771
▁Shayan	-6772
▁Glasgow	-6773
▁Augastin	-6774
▁Shahadat	-6775
▁Gilchrist	-6776
▁Jegannathan	-6777
▁Kamunhukamwe	-6778
sd	-6779
ogo	-6780
yaz	-6781
zam	-6782
ghes	-6783
ifer	-6784
ombe	-6785
rysd	-6786
thay	-6787
▁Jie	-6788
▁Lut	-6789
▁Qur	-6790
▁Wit	-6791
ghese	-6792
jumba	-6793
▁0.9:	-6794
▁Hast	-6795
▁Iwas	-6796
▁Patt	-6797
▁Ayyaz	-6798
▁Drysd	-6799
▁Kolan	-6800
▁Nakash	-6801
▁Sabnam	-6802
▁Sanogo	-6803
▁Sarraf	-6804
▁Vitori	-6805
▁Desmond	-6806
▁Hartley	-6807
▁Iwasaki	-6808
▁Lundell	-6809
▁Manning	-6810
▁Pradeep	-6811
▁Pusthay	-6812
▁Qureshi	-6813
▁Drysdale	-6814
▁Hastings	-6815
▁Lutbayar	-6816
▁Najjumba	-6817
▁Varghese	-6818
▁Gunasekar	-6819
▁Withanage	-6820
bj	-6821
bjy	-6822
eto	-6823
kie	-6824
ous	-6825
▁CC	-6826
▁DF	-6827
▁Nj	-6828
aiya	-6829
lick	-6830
omon	-6831
▁Ans	-6832
▁DAS	-6833
▁KAJ	-6834
bjyot	-6835
illie	-6836
iname	-6837
oroge	-6838
▁Hand	-6839
▁Reza	-6840
▁Safi	-6841
▁Sagh	-6842
ithaka	-6843
▁Roach	-6844
▁Sadhu	-6845
lickova	-6846
▁Brevis	-6847
▁Burger	-6848
▁Damini	-6849
▁Fillie	-6850
▁Kiseto	-6851
▁Rajput	-6852
▁Ramesh	-6853
▁Rehman	-6854
▁Rizlan	-6855
▁Walker	-6856
▁Goodall	-6857
▁Njoroge	-6858
▁Sharmin	-6859
▁Solomon	-6860
▁Marshall	-6861
▁Murrombe	-6862
▁Rabbjyot	-6863
▁Santokie	-6864
▁Suriname	-6865
▁Waithaka	-6866
▁Pavlickova	-6867
igl	-6868
kau	-6869
ruk	-6870
uva	-6871
▁BI	-6872
bers	-6873
erai	-6874
msen	-6875
▁ARA	-6876
▁Hel	-6877
▁Jun	-6878
▁Lik	-6879
▁Zay	-6880
▁Qiao	-6881
ekaria	-6882
iglitz	-6883
ruksha	-6884
▁Azzam	-6885
▁Kerai	-6886
▁Lekau	-6887
▁Manga	-6888
▁Helena	-6889
▁Mathur	-6890
▁Mazhar	-6891
▁Khurram	-6892
▁Likitha	-6893
▁Mommsen	-6894
▁Sangita	-6895
▁Vekaria	-6896
▁Chambers	-6897
▁Stiglitz	-6898
▁Dilruksha	-6899
amo	-6900
wei	-6901
adia	-6902
arci	-6903
inen	-6904
irye	-6905
rani	-6906
▁Alex	-6907
▁Sams	-6908
astamo	-6909
avarci	-6910
lander	-6911
▁Sahil	-6912
▁Pascal	-6913
▁Babirye	-6914
▁Jesrani	-6915
▁Mishara	-6916
▁Saastamo	-6917
▁Canavarci	-6918
▁Thelander	-6919
▁Jayasinghe	-6920
▁Saastamoinen	-6921
Ca	-6922
PF	-6923
oyo	-6924
uzz	-6925
amla	-6926
chet	-6927
gent	-6928
iden	-6929
▁Dug	-6930
▁Rao	-6931
▁Ray	-6932
▁Sip	-6933
▁Yaq	-6934
anguy	-6935
rawal	-6936
▁CJPF	-6937
▁Kaia	-6938
▁Kass	-6939
▁Lion	-6940
▁Maur	-6941
Cachet	-6942
▁Bazil	-6943
▁Fahad	-6944
▁Odoyo	-6945
uzzaman	-6946
▁Jacobs	-6947
▁Tanguy	-6948
▁Yaqoob	-6949
▁Agrawal	-6950
▁Maphaka	-6951
▁Muthoni	-6952
▁Sargent	-6953
▁Sipamla	-6954
▁Broadmore	-6955
▁Nagarajan	-6956
▁Kalugamage	-6957
▁Asaduzzaman	-6958
XM	-6959
ber	-6960
koh	-6961
amud	-6962
anch	-6963
augh	-6964
hout	-6965
▁JOA	-6966
▁Lop	-6967
▁Pip	-6968
▁Suh	-6969
▁Tej	-6970
▁XSD	-6971
▁ZXM	-6972
▁Bezu	-6973
▁Tian	-6974
amudra	-6975
ardwaj	-6976
▁Ameel	-6977
▁Boota	-6978
▁Intan	-6979
▁Langi	-6980
atullah	-6981
aughlin	-6982
▁Piparo	-6983
▁Sankoh	-6984
▁Snater	-6985
idenhout	-6986
▁Mauroof	-6987
▁Bhardwaj	-6988
▁Langiatu	-6989
▁Mazharul	-6990
▁Whiteman	-6991
▁Lopamudra	-6992
▁Tejwinder	-6993
▁Bermingham	-6994
▁Maheshwari	-6995
▁Bezuidenhout	-6996
gra	-6997
lat	-6998
lef	-6999
oop	-7000
pir	-7001
Nair	-7002
chie	-7003
enes	-7004
fold	-7005
wsar	-7006
▁Kus	-7007
Nairn	-7008
topir	-7009
▁Arun	-7010
▁Orsu	-7011
▁Pick	-7012
latzai	-7013
lefula	-7014
onchie	-7015
▁Anoop	-7016
▁Dinda	-7017
▁Jakob	-7018
▁Taher	-7019
▁Alegra	-7020
▁Kawsar	-7021
▁Kusuda	-7022
▁Nouman	-7023
▁Salvin	-7024
▁Sohaib	-7025
▁Stanly	-7026
▁Walton	-7027
▁Khullar	-7028
▁Penfold	-7029
topirakis	-7030
▁Malefula	-7031
▁Dawlatzai	-7032
▁Izatullah	-7033
▁McConchie	-7034
▁Kontopirakis	-7035
bi	-7036
boo	-7037
hol	-7038
▁Ap	-7039
Nall	-7040
katr	-7041
▁Bud	-7042
▁DVD	-7043
▁Mey	-7044
▁Pun	-7045
Nally	-7046
arion	-7047
hambi	-7048
iting	-7049
▁Huma	-7050
▁PSRK	-7051
ampage	-7052
eteche	-7053
▁Boyle	-7054
▁Naing	-7055
▁Tommy	-7056
holkatr	-7057
lintoff	-7058
arionova	-7059
▁Haiting	-7060
▁Humaira	-7061
▁Khusboo	-7062
▁McBride	-7063
▁McNally	-7064
▁Murrure	-7065
▁Ndhambi	-7066
▁Rahmani	-7067
▁Tasneem	-7068
▁Breteche	-7069
▁Flintoff	-7070
▁Madampage	-7071
▁Samiullah	-7072
▁Sudarshan	-7073
▁Dabholkatr	-7074
▁Ilarionova	-7075
ugo	-7076
▁IY	-7077
anks	-7078
apha	-7079
icke	-7080
okic	-7081
▁Ger	-7082
▁Jah	-7083
▁MNR	-7084
ikula	-7085
ooray	-7086
▁4.9:	-7087
ugopal	-7088
▁Cooray	-7089
▁Ebanks	-7090
▁Hayden	-7091
▁Mutasa	-7092
▁Prokic	-7093
▁Abdulla	-7094
▁Bevinje	-7095
▁Gericke	-7096
▁Danikula	-7097
▁Mudassir	-7098
▁Mustapha	-7099
▁Venugopal	-7100
neb	-7101
str	-7102
▁KN	-7103
▁VR	-7104
▁Ya	-7105
Rour	-7106
igai	-7107
ukor	-7108
▁EFB	-7109
▁Pro	-7110
▁Uth	-7111
ander	-7112
▁Estr	-7113
▁Iggo	-7114
▁Kene	-7115
Rourke	-7116
▁Azhar	-7117
▁Sigai	-7118
▁Suhun	-7119
▁Obukor	-7120
▁Sareer	-7121
▁Sattar	-7122
▁Tilman	-7123
▁Zayneb	-7124
▁Estrada	-7125
▁Kenealy	-7126
▁Mazumba	-7127
▁Proctor	-7128
▁Santhan	-7129
▁Uthappa	-7130
▁Andriani	-7131
▁Sigaiwasa	-7132
ise	-7133
Hani	-7134
itse	-7135
jeel	-7136
▁Nye	-7137
▁RGA	-7138
▁Umm	-7139
afili	-7140
asoor	-7141
▁Amah	-7142
▁Latif	-7143
▁Neill	-7144
▁Bester	-7145
▁Karimi	-7146
▁Keitse	-7147
▁Modise	-7148
▁Mutoni	-7149
▁Nyeing	-7150
▁Rukmal	-7151
▁Yousaf	-7152
asooriya	-7153
▁Agafili	-7154
▁Macalou	-7155
▁Kavanagh	-7156
▁Sharjeel	-7157
▁Keitsemang	-7158
▁Jayasooriya	-7159
CK	-7160
JC	-7161
UJC	-7162
phy	-7163
Peir	-7164
adil	-7165
elin	-7166
eton	-7167
iane	-7168
vaja	-7169
aroof	-7170
ennan	-7171
khorl	-7172
▁Band	-7173
▁Mesh	-7174
▁Vaas	-7175
Peirse	-7176
▁Aadil	-7177
▁Hafiz	-7178
▁Ichin	-7179
▁Nojic	-7180
▁WPUJC	-7181
▁Zelin	-7182
khorloo	-7183
▁Aminul	-7184
▁Deldar	-7185
▁Moiane	-7186
▁Priest	-7187
▁Robson	-7188
▁Waller	-7189
▁Zhuang	-7190
▁Bandara	-7191
▁Brennan	-7192
▁Chigora	-7193
▁Khaibar	-7194
▁Meshram	-7195
▁Navdeep	-7196
▁Maharoof	-7197
▁Poorvaja	-7198
▁Parkinson	-7199
▁Ichinkhorloo	-7200
KDS	-7201
ief	-7202
ales	-7203
gone	-7204
icks	-7205
onte	-7206
shad	-7207
▁GES	-7208
▁Hod	-7209
▁Nim	-7210
▁Vat	-7211
aliya	-7212
nawaz	-7213
▁Lath	-7214
▁Marx	-7215
▁Sull	-7216
eratne	-7217
▁AUKDS	-7218
▁Aslan	-7219
▁Dhani	-7220
▁Farid	-7221
▁Forde	-7222
▁Hicks	-7223
▁Jafri	-7224
▁Jonte	-7225
▁Zawar	-7226
▁Cutler	-7227
▁Nimish	-7228
▁Shaikh	-7229
▁Sokova	-7230
▁Araliya	-7231
▁Birrell	-7232
▁Chinawa	-7233
▁Choamba	-7234
▁Lathief	-7235
▁Miranda	-7236
▁Morales	-7237
▁Nikolic	-7238
▁Clarkson	-7239
▁Kalugala	-7240
▁Sullivan	-7241
▁Shahnawaz	-7242
▁Wijeratne	-7243
▁Sokovagone	-7244
foo	-7245
hav	-7246
uvd	-7247
Lest	-7248
elik	-7249
fooz	-7250
▁PKM	-7251
▁Pra	-7252
▁RSM	-7253
Leste	-7254
edion	-7255
engiz	-7256
▁Elec	-7257
▁Kaul	-7258
▁Loch	-7259
▁Burak	-7260
▁Celik	-7261
▁Igbin	-7262
▁Naidu	-7263
▁Timor	-7264
enesuvd	-7265
▁Cengiz	-7266
▁Serdar	-7267
awattage	-7268
▁Mahfooz	-7269
▁Shabber	-7270
▁Drummond	-7271
▁Nathwani	-7272
▁Erdenesuvd	-7273
▁Igbinedion	-7274
▁Mahawattage	-7275
GS	-7276
gwe	-7277
oth	-7278
▁Up	-7279
aley	-7280
esaw	-7281
utty	-7282
▁Aur	-7283
▁EGS	-7284
▁Fou	-7285
▁GEM	-7286
▁Gau	-7287
▁Gin	-7288
▁Hum	-7289
imire	-7290
indza	-7291
ushik	-7292
▁Dias	-7293
▁Basha	-7294
▁Sagar	-7295
▁Shaik	-7296
▁Tutty	-7297
▁Upadh	-7298
▁Vesaw	-7299
shangwe	-7300
▁Aurora	-7301
▁Gurjar	-7302
▁Kimaro	-7303
▁Wardak	-7304
▁Brealey	-7305
▁Gauchan	-7306
▁Ghimire	-7307
▁Kaushik	-7308
▁Ginindza	-7309
▁Vesawkar	-7310
ef	-7311
uan	-7312
▁Kl	-7313
bold	-7314
giet	-7315
ikul	-7316
ired	-7317
irsa	-7318
isar	-7319
onar	-7320
otso	-7321
▁Bus	-7322
▁Ksh	-7323
▁NSK	-7324
▁Rup	-7325
▁SFS	-7326
adani	-7327
▁Tice	-7328
▁Jafta	-7329
▁Jarju	-7330
▁Kabir	-7331
chaikul	-7332
irsagar	-7333
onarine	-7334
retired	-7335
▁Ainool	-7336
▁Hafizs	-7337
▁Nyambo	-7338
▁Roheed	-7339
▁Ganbold	-7340
▁Sumaiya	-7341
▁Thadani	-7342
▁Deonarine	-7343
▁Kshirsagar	-7344
▁Namchaikul	-7345
▁Wijesinghe	-7346
CKA	-7347
aan	-7348
▁DO	-7349
▁Dj	-7350
▁ET	-7351
▁VN	-7352
▁XM	-7353
leen	-7354
oday	-7355
reys	-7356
ulor	-7357
zulf	-7358
▁Sas	-7359
allan	-7360
eetil	-7361
varaj	-7362
▁Anik	-7363
▁Dona	-7364
▁Mboe	-7365
▁UCKA	-7366
▁Yair	-7367
▁Ying	-7368
arkhel	-7369
phreys	-7370
▁Dzulf	-7371
▁Israr	-7372
▁Kerry	-7373
▁Loday	-7374
▁Obulor	-7375
▁Veetil	-7376
▁Jordaan	-7377
▁Joyleen	-7378
▁Meghana	-7379
▁Selvaraj	-7380
▁Dzulfikar	-7381
▁Humphreys	-7382
▁Jabarkhel	-7383
uu	-7384
amy	-7385
faq	-7386
lap	-7387
lia	-7388
ovi	-7389
zay	-7390
▁Mp	-7391
▁Wu	-7392
▁Zi	-7393
.12:	-7394
isic	-7395
uyen	-7396
▁RML	-7397
edevi	-7398
esele	-7399
lapuu	-7400
▁Gaze	-7401
▁Izaz	-7402
▁Ashfaq	-7403
▁Berlia	-7404
▁Kakuru	-7405
▁Nguyen	-7406
▁Isesele	-7407
▁Perisic	-7408
▁Shakoor	-7409
▁Vislapuu	-7410
▁Stanikzay	-7411
▁Satheedevi	-7412
fud	-7413
wag	-7414
woo	-7415
▁AY	-7416
bhai	-7417
cich	-7418
isha	-7419
jang	-7420
khob	-7421
odwa	-7422
▁Mkh	-7423
▁Qun	-7424
▁Seh	-7425
arteh	-7426
elman	-7427
▁Hyun	-7428
▁Omon	-7429
▁Pang	-7430
▁Pond	-7431
estuti	-7432
khobio	-7433
▁Fahim	-7434
eshbhai	-7435
▁Bojang	-7436
▁Sehwag	-7437
▁Waseeq	-7438
▁Devcich	-7439
▁Hyunwoo	-7440
▁Pondani	-7441
▁Jobarteh	-7442
▁Kasselman	-7443
▁Mkhatshwa	-7444
▁Jayeshbhai	-7445
▁Omonkhobio	-7446
▁Pangestuti	-7447
▁Ntombizodwa	-7448
Brer	-7449
arvi	-7450
inau	-7451
lott	-7452
olls	-7453
rukh	-7454
▁MMR	-7455
▁Mes	-7456
▁RAS	-7457
▁SEA	-7458
▁Viy	-7459
ayaka	-7460
▁Dala	-7461
▁Htet	-7462
▁Nich	-7463
▁Ruck	-7464
nanama	-7465
ungmin	-7466
▁Beard	-7467
▁Finau	-7468
▁Obili	-7469
▁Rahat	-7470
▁Arlott	-7471
▁Kharvi	-7472
▁Lakmal	-7473
▁Maximo	-7474
▁Prachi	-7475
▁Raihan	-7476
▁Sangha	-7477
▁Tamoor	-7478
Brereton	-7479
▁Bhullar	-7480
▁Nikolov	-7481
▁Siddiqi	-7482
▁Nicholls	-7483
▁Seungmin	-7484
▁McAnanama	-7485
MV	-7486
by	-7487
Kay	-7488
MVB	-7489
fen	-7490
▁BW	-7491
▁ES	-7492
gela	-7493
haus	-7494
orff	-7495
ouws	-7496
tham	-7497
▁DPS	-7498
andad	-7499
helan	-7500
uller	-7501
▁Busa	-7502
▁Gune	-7503
▁Nair	-7504
▁Vine	-7505
▁Denly	-7506
▁Gouws	-7507
▁JRMVB	-7508
▁Vitas	-7509
endorff	-7510
fenhaus	-7511
thamara	-7512
▁Angela	-7513
▁Chamto	-7514
▁Muller	-7515
▁Whelan	-7516
▁Mailata	-7517
▁Sanjaya	-7518
▁Jahandad	-7519
▁Konasova	-7520
▁Hilfenhaus	-7521
▁Behrendorff	-7522
▁Chenthamara	-7523
liv	-7524
ooy	-7525
urs	-7526
▁BO	-7527
▁ED	-7528
akou	-7529
eeba	-7530
jana	-7531
kera	-7532
kovi	-7533
rita	-7534
▁Aaf	-7535
▁Mag	-7536
▁Wik	-7537
▁Oded	-7538
ursukh	-7539
▁Bader	-7540
▁Jabir	-7541
▁Niran	-7542
▁Plooy	-7543
idharan	-7544
▁Aaftab	-7545
▁Amrita	-7546
▁Andani	-7547
▁Hansra	-7548
▁Murphy	-7549
▁Wikman	-7550
▁Darrell	-7551
▁Franova	-7552
▁Habeeba	-7553
▁Mugisha	-7554
▁Pickard	-7555
▁Tchakou	-7556
▁Trajkovi	-7557
▁Niranjana	-7558
▁Tumursukh	-7559
▁Gunasekera	-7560
▁Sasidharan	-7561
fat	-7562
lea	-7563
sun	-7564
▁LF	-7565
▁Ly	-7566
▁Ox	-7567
ayas	-7568
eler	-7569
igze	-7570
▁BKB	-7571
▁Ill	-7572
▁Zis	-7573
andhi	-7574
eling	-7575
uthal	-7576
▁5.9:	-7577
▁Divy	-7578
▁Esam	-7579
▁Flor	-7580
▁Hume	-7581
▁Jaik	-7582
gharai	-7583
kunduz	-7584
queira	-7585
▁Oxley	-7586
▁Payas	-7587
▁Sefat	-7588
▁Corbin	-7589
▁Gandhi	-7590
▁Kuthal	-7591
▁Ramani	-7592
▁Zishan	-7593
▁Nashath	-7594
▁Jaikaran	-7595
▁Ozkunduz	-7596
▁Sequeira	-7597
▁Stanigze	-7598
▁Divyendra	-7599
▁Shagharai	-7600
▁Kuthalingham	-7601
BK	-7602
eho	-7603
uun	-7604
asti	-7605
odin	-7606
undy	-7607
▁Mba	-7608
▁YBK	-7609
iswal	-7610
▁Kear	-7611
ehoada	-7612
uunzul	-7613
▁Arief	-7614
▁Dhabe	-7615
▁Jacks	-7616
▁Brodin	-7617
▁Grundy	-7618
▁Kalvin	-7619
▁Newton	-7620
▁Rajith	-7621
▁Watkin	-7622
▁Jaiswal	-7623
▁Munisar	-7624
▁Guehoada	-7625
▁Kearvell	-7626
▁Namuunzul	-7627
jug	-7628
ski	-7629
azim	-7630
haul	-7631
iqul	-7632
mane	-7633
osic	-7634
utri	-7635
▁BOP	-7636
▁KTK	-7637
▁Lom	-7638
▁Sta	-7639
▁Tre	-7640
▁Tse	-7641
lades	-7642
orwei	-7643
▁Khel	-7644
▁Musa	-7645
▁NKDP	-7646
▁Sath	-7647
▁Zaib	-7648
▁Kazim	-7649
▁Khand	-7650
▁Mahek	-7651
▁Mailk	-7652
▁Putri	-7653
▁Santh	-7654
▁Tosic	-7655
▁Anjali	-7656
▁Blades	-7657
▁Kubota	-7658
▁Lomani	-7659
▁Senjug	-7660
▁Somani	-7661
▁Chaoana	-7662
▁Shorifa	-7663
▁Tsemane	-7664
▁Vishaul	-7665
▁Wheeler	-7666
▁Munorwei	-7667
▁Shafiqul	-7668
▁Mahekdeep	-7669
▁Kleinveldt	-7670
apo	-7671
▁Ot	-7672
▁XJ	-7673
chke	-7674
erty	-7675
ggra	-7676
iani	-7677
nest	-7678
seer	-7679
stle	-7680
▁Doh	-7681
▁JNT	-7682
▁Ree	-7683
ikkal	-7684
▁Juan	-7685
▁Mire	-7686
▁Nits	-7687
▁Artur	-7688
▁Astle	-7689
▁Jamal	-7690
▁Scott	-7691
▁Waris	-7692
ggraeni	-7693
▁Abeera	-7694
▁Ernest	-7695
▁Molapo	-7696
▁Doherty	-7697
▁Reehana	-7698
▁Scholes	-7699
▁Tafseer	-7700
▁Nitschke	-7701
▁Anggraeni	-7702
ghi	-7703
hti	-7704
uss	-7705
ayya	-7706
chen	-7707
muss	-7708
zoor	-7709
▁BCJ	-7710
▁DKD	-7711
▁Fig	-7712
▁Gok	-7713
▁Jin	-7714
▁Jiy	-7715
▁Mam	-7716
▁Sre	-7717
▁Tit	-7718
anjay	-7719
htiar	-7720
irila	-7721
ongin	-7722
rauss	-7723
righi	-7724
▁Cutt	-7725
▁Dowl	-7726
▁Gore	-7727
▁Hina	-7728
▁Wagh	-7729
esanth	-7730
▁Arfan	-7731
▁Gajic	-7732
▁Ebadat	-7733
▁Jiyeon	-7734
▁Tahiri	-7735
▁Viyala	-7736
▁Amongin	-7737
▁Arrighi	-7738
▁Chirila	-7739
▁Cutting	-7740
▁Gokhale	-7741
▁Gurdeep	-7742
▁Manzoor	-7743
▁Mutreja	-7744
▁Strauss	-7745
▁Sumayya	-7746
▁Titmuss	-7747
▁Bakhtiar	-7748
▁Dhananjay	-7749
▁Sreesanth	-7750
ees	-7751
elj	-7752
jav	-7753
lub	-7754
ril	-7755
▁LP	-7756
lubi	-7757
pedi	-7758
uram	-7759
wane	-7760
▁Avi	-7761
▁Ful	-7762
▁MIW	-7763
▁Ned	-7764
▁SYD	-7765
▁den	-7766
angam	-7767
barak	-7768
javkh	-7769
khail	-7770
▁Raad	-7771
shwane	-7772
▁AAhan	-7773
▁Achar	-7774
▁Bayar	-7775
▁Hlubi	-7776
▁Mpedi	-7777
▁Nazim	-7778
▁Parag	-7779
▁Raees	-7780
▁Ramly	-7781
▁Tarun	-7782
▁Woods	-7783
arangam	-7784
▁Asuram	-7785
▁Ingram	-7786
▁Nazril	-7787
▁Nedelj	-7788
▁Rumman	-7789
javkhlan	-7790
▁Kukreja	-7791
▁Mubarak	-7792
▁Aminuddin	-7793
▁Setshwane	-7794
▁Nazimuddin	-7795
▁Asuramanage	-7796
▁Maroofkhail	-7797
▁Nedeljkovic	-7798
▁Mohanarangam	-7799
▁Bayarjavkhlan	-7800
Pin	-7801
ahi	-7802
bod	-7803
uai	-7804
uwa	-7805
▁KB	-7806
bodo	-7807
kamp	-7808
▁Hug	-7809
▁Nwo	-7810
Pinan	-7811
ahman	-7812
ering	-7813
ields	-7814
▁Jang	-7815
▁Moor	-7816
▁Post	-7817
athgam	-7818
▁Ansar	-7819
▁Mandy	-7820
▁Nisha	-7821
▁Sania	-7822
▁Turan	-7823
anchuai	-7824
▁Hughes	-7825
▁Qadeer	-7826
▁Nwobodo	-7827
▁Waheeda	-7828
athgamuwa	-7829
▁Suanchuai	-7830
▁Ziaurahman	-7831
▁Willathgamuwa	-7832
Ny	-7833
oz	-7834
dek	-7835
off	-7836
onn	-7837
▁DI	-7838
▁Hy	-7839
Mill	-7840
aham	-7841
aika	-7842
aney	-7843
ayay	-7844
borg	-7845
ilas	-7846
omes	-7847
ynam	-7848
zell	-7849
▁KAB	-7850
▁Mit	-7851
▁Won	-7852
Mills	-7853
akkun	-7854
dekin	-7855
uddus	-7856
▁hurt	-7857
Nyberg	-7858
askara	-7859
enborg	-7860
▁Adama	-7861
▁Bhari	-7862
▁Diaby	-7863
▁Gomes	-7864
▁Hynam	-7865
▁Kaham	-7866
▁McKay	-7867
▁Munoz	-7868
▁Rabia	-7869
▁Silas	-7870
▁Yogev	-7871
▁Davids	-7872
▁Mitari	-7873
▁Quddus	-7874
▁Rachel	-7875
▁Woning	-7876
onnakkun	-7877
▁Dalzell	-7878
▁Delaney	-7879
▁Fleming	-7880
▁Zulaika	-7881
▁Bhaskara	-7882
▁Burdekin	-7883
▁Kahamker	-7884
▁Shahrukh	-7885
▁Meyenborg	-7886
▁Upadhayay	-7887
▁Venkataswamy	-7888
▁Saranonnakkun	-7889
bsa	-7890
erb	-7891
oao	-7892
sau	-7893
▁EK	-7894
arin	-7895
boza	-7896
idev	-7897
mist	-7898
thak	-7899
waya	-7900
▁Biu	-7901
▁Dur	-7902
▁Kay	-7903
▁Sle	-7904
andak	-7905
unica	-7906
▁Abol	-7907
▁Joao	-7908
bsager	-7909
miston	-7910
▁Florin	-7911
▁Magare	-7912
▁Matsau	-7913
▁Perman	-7914
▁Sridev	-7915
▁Barboza	-7916
▁Mounica	-7917
▁	-7918
e	-7919
a	-7920
t	-7921
n	-7922
o	-7923
r	-7924
i	-7925
s	-7926
h	-7927
.	-7928
l	-7929
d	-7930
u	-7931
g	-7932
v	-7933
,	-7934
:	-7935
c	-7936
O	-7937
m	-7938
w	-7939
k	-7940
f	-7941
b	-7942
y	-7943
S	-7944
M	-7945
1	-7946
p	-7947
A	-7948
R	-7949
K	-7950
3	-7951
C	-7952
T	-7953
I	-7954
5	-7955
2	-7956
6	-7957
B	-7958
4	-7959
J	-7960
N	-7961
D	-7962
P	-7963
H	-7964
z	-7965
'	-7966
G	-7967
E	-7968
—	-7969
q	-7970
F	-7971
L	-7972
!	-7973
U	-7974
W	-7975
7	-7976
(	-7977
)	-7978
x	-7979
8	-7980
0	-7981
-	-7982
9	-7983
V	-7984
j	-7985
Z	-7986
Y	-7987
X	-7988
Q	-7989
’	-7990
/	-7991
é	-7992
